,
.
the
and
in
und
to
die
of
a
that
i
sie
das
der
it
ich
&quot;
you
ist
es
we
is
wir
zu
&apos;s
so
was
this
?
ein
--
von
eine
dass
:
nicht
an
they
den
mit
for
wie
are
on
have
what
auf
but
with
man
sich
can
sind
aber
für
all
haben
wenn
&apos;t
about
there
also
als
er
be
as
at
war
diese
do
um
not
one
&apos;re
im
my
people
if
dem
like
from
he
einen
uns
now
these
können
just
or
hier
oder
our
werden
des
hat
because
when
aus
very
über
out
how
me
by
einer
auch
–
know
kann
up
them
going
einem
dann
sehr
which
here
more
nur
see
wird
think
had
your
who
gibt
really
ihnen
menschen
their
will
get
mich
then
would
were
us
sein
sehen
&apos;ve
world
dieser
etwas
some
&apos;m
time
noch
nach
habe
has
actually
don
into
mir
way
things
where
years
bei
vor
;
mehr
alle
welt
go
am
other
no
-
well
could
want
ihre
make
meine
leben
zum
said
been
machen
weil
new
nun
da
wirklich
wurde
dies
right
something
dieses
she
kind
-@@
first
two
look
durch
those
immer
tun
art
than
his
unsere
little
jetzt
ihr
wissen
thing
got
much
&apos;
back
zeit
hatte
say
life
keine
leute
most
viel
over
problem
viele
only
diesem
work
even
denn
sagte
sagen
take
un@@
eines
dinge
du
diesen
zwei
many
einfach
waren
alles
did
need
her
jahren
good
müssen
bin
why
andere
around
lot
ver@@
wo
&apos;ll
anderen
down
würde
damit
different
bis
let
mein
vielleicht
system
every
zur
through
an@@
gut
selbst
!
geht
come
mal
er@@
ge@@
same
ab@@
use
jahre
doing
being
put
heute
three
warum
day
muss
schon
geschichte
any
einige
called
10
percent
ja
be@@
person
möchte
tatsächlich
made
&apos;d
great
talk
today
able
wieder
macht
s
after
tell
big
gehen
davon
its
end
dort
kinder
denken
ein@@
year
human
ganz
drei
ten
last
another
genau
fact
aus@@
find
hatten
lassen
seine
re@@
darüber
own
land
ihn
paar
change
könnte
ob
idea
before
wollen
didn
jahr
went
should
thought
werde
started
show
in@@
give
kommen
meiner
design
story
te
20
better
never
ihren
wurden
off
course
start
important
auf@@
still
moment
again
während
weg
gab
teil
him
does
beispiel
jeder
geben
next
ago
denke
dazu
ende
gemacht
might
each
part
vom
brain
thank
unserer
technology
neue
denen
wäre
finden
frage
ted
together
en@@
sondern
sogar
...
unser
came
okay
glaube
doch
tag
place
bit
kein
computer
form
long
million
kommt
natürlich
water
ohne
arbeit
few
ihrer
between
used
weiter
zwischen
einmal
zeigen
looking
gerade
weiß
nichts
mean
stellen
würden
too
school
vor@@
dafür
information
s@@
ok
hand
maybe
prozent
done
love
passiert
sort
ging
point
found
verstehen
data
erste
nie
children
zurück
question
doesn
unter
live
sieht
example
über@@
ersten
millionen
vielen
whole
nehmen
konnte
understand
daran
real
30
wanted
four
große
o@@
dollar
k@@
oh
sagt
ed
idee
ganze
bild
may
arbeiten
fragen
letzten
etwa
try
times
bekommen
dabei
women
away
50
ent@@
könnten
everything
trying
working
call
e@@
believe
bringen
kids
internet
fast
sollten
sollte
t@@
ziemlich
de@@
ever
frauen
ing
always
sprechen
less
money
five
wollte
meisten
using
feel
welche
fall
space
power
100
en
geld
kam
country
meinen
a@@
help
meinem
ma@@
food
second
number
d@@
daten
t
wasser
kleinen
thinking
took
seite
weise
wichtig
light
darauf
old
china
create
technologie
sache
video
city
eigentlich
besser
zusammen
future
means
o
getting
energy
weniger
become
quite
making
ins
men
sense
e
enough
probably
vier
small
best
großen
says
gesehen
i@@
without
g@@
building
comes
di@@
ganzen
se@@
social
glauben
li@@
bedeutet
ihm
play
left
dachte
interesting
menge
jemand
lernen
raum
body
kleine
science
brauchen
earth
home
africa
unseren
dollars
ihrem
danke
ter
15
gehirn
zeigt
stuff
talking
happened
gen
coming
versuchen
half
um@@
ask
mann
nein
&#91;
ro@@
&#93;
jedes
p@@
anything
ti@@
jeden
pretty
simple
seit
side
indem
ort
zu@@
de
goes
room
planet
project
ar@@
ab
z@@
ung
lives
zukunft
frau
grund
wer
high
makes
al@@
film
ways
ch@@
york
bad
seen
across
such
living
problems
happen
told
beim
schauen
else
gesagt
job
health
nutzen
saw
m@@
imagine
eigenen
fünf
build
essen
sch@@
keinen
seiner
basically
once
gute
happens
y
countries
global
days
später
schaffen
yet
allen
erde
spielen
picture
sten
hätte
y@@
business
case
ge
b@@
los
team
care
n@@
gegen
hard
jede
book
while
heraus
asked
experience
later
having
move
ungefähr
wahrscheinlich
c@@
ra@@
learn
al
ideas
u@@
probleme
family
pro
bauen
k
dis@@
funktioniert
name
young
age
reason
ts
inside
set
process
konnten
everybody
sicher
st@@
erzählen
le@@
states
arten
per
car
six
wenig
richtig
mutter
open
child
m
both
line
neuen
nothing
billion
em
l@@
history
oft
heißt
single
within
almost
lange
liebe
co@@
helfen
b
rest
g
genug
mind
schnell
unter@@
gt
möglich
stand
looks
40
material
punkt
ri@@
cancer
nächsten
halten
nature
whether
saying
far
top
bring
f@@
schule
cells
already
ideen
level
music
%
körper
bisschen
remember
true
wrong
gruppe
lang
stadt
keep
erst
ated
possible
begann
hope
sah
reden
seinen
dank
guy
unserem
r@@
afrika
beautiful
überall
el@@
ding
planeten
buch
heard
d
looked
often
sure
yes
euch
manchmal
projekt
stehen
darum
ers
research
face
licht
community
energie
je
answer
hin
matter
teilen
anders
leuten
st
bevor
piece
under
built
group
months
read
united
sei
&amp;
am@@
india
amazing
h@@
or@@
ungs@@
entwickelt
god
liegt
eren
hören
taking
ische
milliarden
universe
works
sagten
someone
systems
words
situation
stories
usa
kennen
seinem
ate
education
instead
nennen
test
state
until
places
since
anderes
dna
liche
yeah
gehört
myself
tes
ern
government
ischen
isn
order
species
informationen
sometimes
generation
unternehmen
besonders
decided
weit
control
mädchen
steht
revolution
2
language
public
couple
deshalb
natur
chen
exactly
kinds
somebody
c
machte
house
middle
news
le
ni@@
stop
turn
ungen
verändern
enden
minuten
word
wissenschaft
tat
durch@@
rather
/
front
bilder
la@@
oben
model
namens
everyone
bereits
company
heart
n
gar
geschichten
though
con@@
ourselves
woman
ation
lichen
head
po@@
completely
evolution
lo@@
te@@
lebens
red
erkennen
erreichen
game
itself
minutes
became
mother
share
students
verschiedene
antwort
wasn
führen
es@@
familie
lage
musste
25
animals
benutzen
indien
must
run
sprache
ert
spiel
nach@@
gefühl
sechs
society
darin
wert
happy
experiment
themselves
america
hätten
turns
gerne
innovation
large
—
ating
dich
gets
learned
mit@@
musik
si@@
12
ere
created
environment
möglichkeit
ones
gesellschaft
ting
study
hear
her@@
hours
ie
air
happening
bar
shows
huge
friends
klar
oil
verhalten
guys
sound
braucht
einzige
perhaps
sage
e-@@
mo@@
on@@
augen
haus
population
stellt
stunden
th@@
falls
disease
innerhalb
ta@@
v@@
recht
me@@
treffen
eins
ha@@
along
american
wegen
natural
night
won
worked
pro@@
third
1
couldn
gen@@
ste
gleich
gott
h
jedem
au@@
besten
niemand
se
bewegen
irgendwie
questions
l
ocean
soll
figure
knew
regierung
sachen
lots
gebäude
machine
obwohl
particular
early
kindern
kopf
verschiedenen
vater
stück
vorstellen
center
entwickeln
schreiben
learning
lich
zellen
erhalten
area
mi@@
at@@
bo@@
moving
others
son
menschlichen
national
past
zusammen@@
einigen
against
mon@@
ability
gene
gleiche
verwenden
century
im@@
tiere
finally
gave
king
least
pa@@
takes
beiden
u
z
during
bu@@
wonderful
culture
ger
rate
market
seven
bitte
gleichen
männer
sa@@
60
ziehen
ändern
80
close
media
needs
nämlich
schwer
unglaublich
david
länder
beginnen
patienten
wollten
image
alt
ru@@
entire
mar@@
online
outside
as@@
based
bringt
p
version
whatever
200
difference
thousands
green
dir
google
kamen
cell
lässt
taken
kunst
free
fand
hoch
du@@
versucht
chance
daher
ne@@
parts
arm
damals
lesen
überhaupt
isch
per@@
changed
gern
patient
so@@
software
universum
he@@
hin@@
kultur
view
aller
wohl
3
auto
beginning
hiv
yourself
hilfe
möglichkeiten
ten@@
herum
nächste
powerful
5
führt
tage
turned
tut
audience
cool
hause
fähigkeit
given
groß
bi@@
eltern
ken
seeing
sinn
baby
interested
certain
getan
wirtschaft
black
ch
terms
allem
angst
staaten
leave
nachdem
size
ans
ei@@
verändert
zwar
fühlen
menschliche
pe@@
entwicklung
full
zurück@@
cannot
glück
grow
ko@@
street
bewegung
dessen
eyes
ous
difficult
economic
eight
ger@@
junge
kurz
plan
region
sen
to@@
walk
easy
labor
behind
letzte
began
hand@@
spend
stelle
web
buy
wort
ds
ho@@
value
vision
zahlen
death
dingen
inter@@
ly
unten
worden
led
force
lösung
common
man@@
setzen
amount
eher
fish
j@@
s-@@
gone
lösen
ter@@
den@@
deren
paper
self-@@
weitere
hoch@@
meines
normal
week
ze
fahren
hands
local
teile
erfahrung
field
scale
cost
deal
lehrer
blue
humans
ck@@
needed
jedoch
kosten
nimmt
south
cities
kraft
sh@@
simply
car@@
neu
vi@@
welches
longer
muster
step
unterschied
born
father
mu@@
anfang
betrachten
r
tried
18
fa@@
stage
eigene
parents
prozess
roboter
ausge@@
modell
position
erte
wind
500
erten
solche
sp@@
either
feet
jungen
lose
schön
virus
growth
is@@
realized
code
complex
direkt
erinnern
interessant
publikum
surface
x
beste
minute
wasser@@
autos
krebs
lost
mussten
ses
spent
ziel
books
falsch
incredible
tragen
genauso
schließlich
u.s.
wissenschaftler
d-@@
fi@@
personal
white
ac@@
companies
fragte
quickly
sitting
watch
grunde
fliegen
mag
behavior
bleiben
box
thema
zer@@
structure
su@@
ur@@
verbindung
gi@@
jobs
known
maschine
namen
w@@
laufen
kaufen
nahm
2@@
act
do@@
gedanken
sieben
wahr
woche
ground
ton
girl
john
na@@
zweite
felt
reality
sex
stellte
vortrag
boden
eat
freunde
sollen
sterben
bar@@
fly
for@@
growing
university
wouldn
wären
ks
meter
pay
bereich
danach
met
monate
brought
formen
friend
neues
op@@
opportunity
hast
t-@@
technologies
animal
guten
licher
wi@@
sea
super@@
wa@@
alter
developed
economy
zahl
90
ates
miles
4
besteht
feeling
fun
plötzlich
weeks
aren
da@@
changes
richtung
11
gu@@
zuvor
ens
erschaffen
hey
political
struktur
suchen
anderer
hinter
lt
wusste
größte
potential
reise
technologien
poor
sk@@
zi@@
ar
platz
ster
ad@@
genommen
ka@@
lebens@@
positive
theory
tra@@
anyone
ihres
lab
starting
west
write
wrote
alen
forschung
nice
short
völlig
wall
bildung
college
religion
ale
areas
sun
tools
ben
fe@@
morning
technik
ange@@
climate
draußen
tages
wochen
zehn
general
images
museum
scientists
luft
par@@
patients
designer
ber@@
gebaut
program
ste@@
18@@
attention
forward
manche
map
average
deep
funktionieren
gefunden
gives
giving
links
modern
reihe
zuerst
discovered
gemeinschaft
knowledge
markt
gewesen
geworden
ländern
möchten
scheint
aussehen
ded
ice
ine
digital
ex@@
fest
movement
anzahl
it@@
16
cars
cut
pi@@
schul@@
speak
studenten
unseres
erklären
ke
krieg
sehe
understanding
en-@@
gelernt
ms
north
playing
student
alten
beginnt
literally
over@@
acht
challenge
phone
bereit
bottom
brachte
firma
mache
numbers
schritt
daraus
dr.
mars
materials
moral
ons
pre@@
shape
access
ischer
seems
anstatt
aufgabe
größe
key
mis@@
y-@@
beide
computers
passieren
physical
schwierig
creating
jahrhundert
miteinander
tatsache
ä@@
ck
erzählt
individual
running
anfangen
hal@@
morgen
pu@@
300
absolutely
english
ent
glücklich
wachsen
bau@@
findet
chris
designed
genannt
gruppen
nachdenken
sen@@
tieren
bist
late
mensch
table
hold
jemals
law
realize
result
chinese
kleines
medical
recently
bekommt
compassion
gas
fanden
relationship
wahrheit
ges
gingen
millions
mor@@
solution
3@@
ak@@
bewusst
developing
focus
größten
hi@@
nobody
6
krankheit
sts
amerika
changing
niemals
product
soziale
telling
verwendet
alone
wei@@
egal
gesundheit
girls
hundreds
incredibly
save
umgebung
afghanistan
ant
ben@@
haven
knows
listen
seem
development
f
gra@@
vorstellung
benutzt
dark
der@@
industry
politik
gezeigt
stimme
el
gebiet
gerät
ings
blood
ja@@
ser@@
anybody
anzu@@
no@@
kid
ps
available
bücher
issue
liches
london
mer@@
oberfläche
showed
tu@@
allein
died
especially
gegeben
obviously
schulen
w
bekannt
entfernt
go@@
karte
kleiner
richtige
rolle
schrieb
straße
verbunden
clear
hour
bank
bio@@
grund@@
hälfte
major
ot@@
solve
welt@@
bedeutung
geschrieben
hu@@
jemanden
talked
war@@
ca@@
com@@
finger
perfect
schlecht
ba@@
beyond
foto
games
kontrolle
meinung
security
sub@@
we@@
sicherheit
support
allow
bigger
fl@@
lived
spricht
tiny
mittel
network
type
action
beziehung
einfache
na
please
present
produce
systeme
theorie
70
becomes
drive
east
gegenüber
leicht
office
park
qu@@
städte
veränderung
che
har@@
heraus@@
impact
x@@
begin
erreicht
fähigkeiten
geboren
nacht
richard
stark
writing
mitte
tri@@
ve
color
guess
happiness
kan@@
kon@@
reasons
scientific
explain
auszu@@
hoffe
interessiert
mission
pictures
preis
8
dead
effect
international
resources
special
teach
br@@
europe
freund
groups
ic
schools
basis
bill
device
einzelne
mögen
out@@
under@@
fehler
folgen
gebracht
nation
us@@
verloren
14
low
fallen
pflanzen
regeln
worth
isches
ker
mine
os
sc@@
sta@@
versuche
voice
zen
absolut
legen
robot
rules
stimmt
gesicht
send
soon
training
aids
asking
erfolg
meet
similar
voll
bewegt
sonne
activity
involved
putting
uses
basic
bekam
boy
men@@
offensichtlich
teachers
towards
website
arbeitet
dachten
komplett
kt
projects
sonst
voller
ansehen
finde
heutzutage
issues
quality
tisch
vereinigten
zeige
dar@@
seiten
selbst@@
sofort
taten
a-@@
einge@@
herausforderung
ku@@
liegen
nennt
risk
suddenly
tells
truth
gekommen
herauszufinden
mass
mitgefühl
several
solar
village
ähnlich
eye
studie
bald
ches
blick
board
certainly
fear
japan
lei@@
normalerweise
sorgen
machten
nine
page
smart
sounds
class
ig@@
particularly
tier
entscheidungen
geschieht
month
non-@@
total
gesamte
hundred
möglichen
ne
statt
ständig
all@@
ergebnis
everywhere
indeed
trotzdem
wann
wichtige
24
evidence
haupt@@
lieben
object
einander
hei@@
pen@@
wants
bed
bei@@
em@@
ir@@
starts
tion
tod
walking
bilden
europa
hit
künstler
wish
ber
bevölkerung
choice
examples
gesch@@
mal@@
gewinnen
größer
hoffnung
notice
tagen
anyway
hospital
linie
om@@
$
bare
message
skin
weg@@
wieder@@
hält
land@@
ner
neu@@
orte
pattern
schen
showing
ah
aufmerksamkeit
reach
ready
sicht
carbon
nuclear
service
wait
begannen
länger
monaten
professor
sobald
erung
gearbeitet
gemeinsam
kannst
medicine
moved
programm
stay
totally
zeit@@
anschauen
democracy
exciting
further
grenzen
journey
ma
san
th
wesen
biggest
connected
creative
forms
grew
measure
onto
period
sit
sitzen
source
sozialen
square
vergessen
weltweit
denkt
punkte
zelle
400
add
ler
ol@@
realität
rede
überleben
bewusstsein
einzelnen
et@@
großer
passierte
speed
follow
il@@
nachrichten
pick
schneller
tet
verlieren
videos
bessere
bleibt
ci@@
ended
fire
gesprochen
gleichzeitig
produkt
richtigen
talks
aufzu@@
beobachten
firmen
gel@@
langsam
largest
medien
re
road
sand
ty
öl
übrigens
9
abzu@@
babies
beispiele
demokratie
ft
fu@@
ke@@
rei@@
sahen
screen
teacher
13
bestimmten
deine
develop
extraordinary
gang
gl@@
iran
stars
versuchte
vorher
wichtiger
est
ged
interessante
named
peace
poverty
success
tions
amerikanischen
klein
lead
likely
list
mental
strong
wahl
wer@@
bestimmt
buildings
fangen
krankheiten
serious
song
spaß
washington
ebene
führte
ga@@
gutes
hab
rich
visual
watching
among
break
bri@@
continue
einfluss
end@@
großes
industrie
orten
tausende
tier@@
trees
approach
außer
ling
medizin
partner
sprachen
strom
tan@@
tend
zentrum
aufge@@
cht
plants
points
wussten
zeiten
zumindest
bal@@
co2
dadurch
elle
island
products
zero
4@@
arbeitete
cu@@
organization
results
spiele
star
sti@@
17
african
ally
brains
door
eln
impossible
objects
safe
umwelt
v
7
definition
electricity
essentially
geschehen
laden
meaning
sent
series
standing
verlassen
wow
cause
computer@@
eventually
usually
ö@@
biology
ce
ing@@
messen
nachzudenken
paul
spezies
spiel@@
zweiten
alte
cks
elt
entdecken
except
fer@@
grad
gte
ki@@
methode
movie
somewhere
sprach
tischen
verbessern
bühne
doctor
extremely
mathematik
mom
ordnung
spread
star@@
tische
tr@@
wand
zustand
allowed
außerdem
facebook
farbe
fen
ff@@
gestellt
menschheit
sky
toll
traditional
wieso
architecture
aussieht
camera
erzeugen
expect
studies
upon
crisis
dad
erlaubt
geist
higher
lines
site
tic
warten
ball
fing
kar@@
larger
models
private
reading
somehow
sowohl
studien
thousand
tree
foot
frei@@
individuals
nachricht
papier
sekunden
taught
the@@
tool
truly
beauty
conditions
finding
fundamental
herstellen
materialien
ment
por@@
sorts
tive
tung
vergangenheit
verständnis
written
band
cher
cor@@
fällt
les
lu@@
mer
nen
older
prinzip
sammeln
ters
bacteria
baren
bs
crazy
gründe
handelt
killed
nenne
shot
shown
tv
zugang
fantastic
fine
fotos
früher
himself
zeug
above
dr@@
drug
ell
ene
interest
leaders
produzieren
text
wife
35
diejenigen
einzu@@
großartige
läuft
nahmen
party
schüler
trust
auto@@
bra@@
communities
dorf
gewalt
kom@@
schaut
testen
therefore
treten
befinden
blind
charles
frei
ges@@
goal
je@@
konzept
ou@@
rein@@
seconds
suche
worse
.@@
artikel
aufgrund
complicated
dream
lebt
monat
neben
perspective
sal@@
spielt
treatment
universität
versuch
wirklichkeit
zwei@@
drugs
england
famous
flow
fort@@
genes
massive
organisation
stri@@
tiert
verstanden
werte
western
19@@
amerikaner
bur@@
content
des@@
excited
favorite
hinaus
lichkeit
nummer
physics
produkte
supposed
ator
berg
details
freiheit
irgendwo
israel
ozean
personen
successful
behandlung
entweder
hole
ran
role
san@@
ag@@
expensive
haut
innen
interesse
ph@@
stunde
town
welcher
armut
bl@@
feld
hot
rise
sell
wachstum
zed
central
engineering
entdeckt
globalen
humanity
military
unmöglich
worte
2000
betrachtet
cases
familien
faster
fest@@
kept
klasse
leisten
main
meant
neurons
plant
response
sohn
ster@@
theater
typ
ung@@
weiter@@
»
150
alive
ders
freedom
gegangen
gs
hilft
including
kill
original
pain
radio
sinne
throughout
tigen
aid
arzt
dra@@
families
fight
geschäft
gründen
math
pri@@
price
riesige
smaller
tre@@
bunch
entschieden
ergebnisse
extra
genome
pal@@
pieces
schicken
ties
verbinden
«
antworten
arbeits@@
che@@
dasselbe
dritte
fully
high-@@
pan@@
patterns
projekte
selben
slow
vertrauen
argument
ley
meeting
touch
wo@@
öl@@
bestimmte
einstein
maschinen
netz
rechts
actual
bel@@
chten
context
dog
gefragt
george
herum@@
himmel
liste
male
objekt
teaching
ul@@
although
architektur
beginn
etc
james
recognize
rück@@
tumor
violence
arbeite
dance
lösungen
policy
skills
stellten
stimmen
us-@@
clearly
earlier
eis
ermöglicht
fällen
handeln
holen
kollegen
neun
signal
active
bakterien
biologie
choose
concept
connect
dan
eben
ebenso
greater
listening
nahrung
progress
store
tz@@
voll@@
waiting
costs
fin@@
glass
gten
ity
medi@@
michael
näher
solchen
stre@@
thanks
zing
and@@
erklärt
invented
ju@@
magic
president
remarkable
strange
tor@@
tur@@
ban@@
beings
cken
connection
dung
familiar
fertig
healthy
machines
naja
satz
sing
traf
untersuchen
wonder
zunächst
americans
balance
chte
entscheiden
gung
income
operation
record
rights
september
setzt
solutions
werfen
anywhere
heit
increase
ness
performance
production
raus
schönheit
tige
umwelt@@
zeigte
artist
driving
geschwindigkeit
gesetz
however
hört
kaum
leider
lie@@
press
provide
re-@@
surgery
ums
waste
1@@
2008
befindet
decisions
direction
exist
freude
gesamten
hände
hörte
km
neuro@@
ressourcen
schlechte
tt@@
bezug
bodies
ce@@
consider
draw
hundert
lan@@
legs
malaria
politics
protect
spitze
travel
600
allows
außerhalb
flu@@
lower
meer
retten
auswirkungen
beziehungen
geb@@
hen
kampf
kl@@
komme
mikro@@
mobile
plastic
rund
seines
services
99
bus
foundation
geschaffen
herz
les@@
robots
sin@@
straßen
verkaufen
bedingungen
clean
ction
dangerous
dein
ehrlich
feed
iert
lag
landes
letztes
none
tests
werkzeuge
abge@@
anymore
auge
conference
current
fische
forces
one-@@
rule
ts@@
unglaubliche
values
worten
bisher
ca.
conversation
deswegen
effective
erfahren
erstens
floor
flying
hielt
pass
specific
traum
ves
win
ants
block
critical
ellen
erfolgreich
gleich@@
herausfinden
intelligence
leidenschaft
lin@@
sche
self
ship
sorry
thomas
ach@@
cra@@
environmental
erzählte
function
gar@@
gel
geräte
getroffen
keiner
mark
min@@
minds
motor
nu@@
pat@@
practice
slide
standard
station
studio
trade
train
verstand
wege
abend
bor@@
emotional
gehirns
greatest
lernte
nigeria
regierungen
är@@
armen
cultural
depression
druck
enen
far@@
großartig
jo@@
kilometer
protein
rechte
rock
subject
uhr
understood
wichtigste
win@@
becoming
cold
doctors
don@@
einfachen
er-@@
erinnere
erwarten
genetic
held
hunderte
immediately
masse
raise
rechten
schließen
speaking
trans@@
treat
verrückt
z.b.
6@@
can@@
chemical
decade
dern
ebenfalls
einzigen
eller
experiments
fuel
ian
k-@@
kinder@@
konferenz
langen
lights
mr.
produced
range
reaktion
restaurant
ring
strukturen
typen
unterschiedliche
useful
ver
bäume
creativity
directly
evolved
extrem
nasa
net
ors
passion
stein
weren
whose
wikipedia
45
9@@
angefangen
cover
drehen
eigenschaften
ell@@
energie@@
enormous
final
krankenhaus
nahe
pull
walked
ahnung
bt
financial
flugzeug
forget
forth
institutions
kamera
kor@@
ob@@
res@@
unfortunately
zeitpunkt
ations
consciousness
darwin
endlich
fit
gehe
kli@@
loved
mehrere
micro@@
my@@
near
survive
twitter
cker
heutigen
il
ism
networks
photograph
police
schlagen
schützen
status
tern
tiger
trifft
westen
daten@@
els
following
gesellschaften
groß@@
kal@@
levels
negative
nehme
netzwerk
stick
tradition
unterschiede
weisen
behandeln
boys
dro@@
element
focused
jemandem
ken@@
ließ
o-@@
stattdessen
tem
tionen
types
ve@@
veränderungen
wichtigsten
öffentlichen
aware
bin@@
detail
ess
fisch
gesundheits@@
globale
governments
hängt
kern
reichen
sha@@
shared
str@@
various
wal@@
75
besch@@
birds
büro
herz@@
jene
kunst@@
medikamente
phase
sat
television
ärzte
000
5@@
et
fahr@@
gr@@
herzen
societies
sustainable
teams
ted-@@
temperature
al-@@
ars
california
career
drei@@
dri@@
indian
mostly
organisationen
pl@@
search
stra@@
ton@@
verantwortung
verbindungen
wohin
apple
ard
dy
erfunden
gaben
ganzes
gedacht
geschafft
guter
inspired
konzentrieren
laptop
obvious
sharing
sleep
son@@
tion@@
zweitens
alternative
ancient
englisch
extreme
helped
hinein
hinter@@
instrument
jahrhunderts
markets
mc@@
possibly
regel
wor@@
2007
anti-@@
designers
eating
event
instance
sodass
summer
wider@@
7@@
anti@@
bits
brot
ces
ha
karten
körper@@
lasst
lief
moon
natur@@
path
recent
tete
tür
weiss
wenige
öffnen
below
capital
character
farben
fälle
genden
harvard
heat
herzustellen
ing-@@
push
unique
verbringen
brauchte
daughter
diseases
erfahrungen
explore
größere
institute
produktion
secret
stecken
werk
wunsch
ys
ahead
ality
erleben
erzeugt
funny
gebe
geführt
gehirn@@
größeren
paid
race
related
spending
ther@@
tolle
urban
wild
winter
1,@@
budget
complete
echte
entschied
francisco
hy@@
intelligent
medium
mil@@
nar@@
pp@@
sicherlich
trick
versch@@
waffen
zeichen
artists
biological
bought
challenges
entscheidung
ernst
gefühle
inspiration
luft@@
physik
scientist
sor@@
up@@
weight
ators
bat@@
birth
bitten
bre@@
bringing
capacity
cur@@
decision
discover
echt
effects
erstaunlich
existiert
halte
industrial
islam
ked
robert
steve
unterstützen
ü@@
complexity
ct
erstes
fähig
fühlte
gold
kte
loch
modernen
schöne
sekunde
terrible
workers
ß@@
carry
ess@@
eu@@
fra@@
genutzt
gri@@
laws
leistung
note
popular
schluss
slightly
straight
tens
vorbei
ance
communication
desto
dying
geschah
ka
kreativität
neuronen
produziert
quick
reich
track
twice
valley
wagen
wählen
youtube
amerikanische
charge
devices
dreht
eigenes
frühen
gend
han@@
komplexität
mel@@
mond
nächstes
steckt
steigen
stern
tief
vier@@
wörter
10,000
beeinflusst
bildern
broken
decide
degrees
drop
fair
fe
folgendes
fuß
link
molecules
pla@@
quote
worry
zes
amp
atmosphere
begonnen
bro@@
conflict
dig
endes
fragt
freunden
gro@@
not@@
osten
runter
seien
spieler
stem
task
weiterhin
1,000
ca
check
forest
fühlt
gegen@@
graph
hart
höhe
ieren
mountain
mt
published
purpose
significant
spreche
ss
sto@@
ze@@
zog
zusammenhang
ansatz
causes
cher@@
closer
coffee
electric
fenster
infrastructure
memory
played
qualität
spe@@
surprising
tochter
willing
address
citizens
erlauben
farm
ff
marketing
nähe
ven@@
asia
ausdruck
daß
dorthin
feedback
fluss
ful
gende
hearing
investieren
lat@@
leads
ments
minister
nicht-@@
noticed
offen
stone
trial
verfügung
allerdings
ani@@
ausbildung
differences
ford
grade
in-@@
kostet
kriegen
magazine
multi@@
nor@@
oxygen
pressure
ren@@
somit
supply
universums
wirst
zieht
zimmer
2010
20@@
aktivität
bat
bestehen
decades
del@@
designs
funktion
fühle
gelegenheit
gewebe
habt
hotel
materie
politischen
reisen
sting
stücke
verursacht
wissenschaftliche
benötigt
british
co
communicate
corner
dan@@
erforschen
fernsehen
infrastruktur
mittel@@
natürliche
pr@@
riesigen
sign
stolz
structures
sucht
verfolgen
bau
begriff
ern@@
fli@@
flight
fo@@
fort
frieden
giant
indi@@
plus
schutz
sur@@
ta
trouble
answers
apart
bird
boston
botschaft
calls
cent
effekt
feuer
gh@@
irgendwann
kämpfen
nations
pakistan
tig
tro@@
trotz
brown
discovery
einkommen
erinnert
farmers
haufen
highly
kontrollieren
len@@
prize
risiko
river
sterne
term
tief@@
töten
brilliant
choices
einfacher
enter
ermöglichen
filme
haus@@
kern@@
laut
passed
planets
politische
programs
tru@@
vielfalt
werkzeug
worst
yellow
zieren
8@@
aufgenommen
bridge
chs
colleagues
davor
efficient
entstehen
entwickelten
fix
gener@@
gestalten
gotten
großbritannien
ige
improve
kin@@
klingt
lehr@@
männern
seemed
2005
5,000
ad
bas@@
beine
condition
creates
era
gesetze
kommunikation
krise
kräfte
lich@@
moments
possibility
prison
roten
schaft
tremendous
unbe@@
verdienen
vergleich
wiederum
zei@@
ages
arme
benötigen
blu@@
dennoch
easily
eigen@@
einsatz
feels
grenze
kenne
onen
organisms
organizations
phenomenon
quelle
ran@@
report
sand@@
tional
zeichnen
ary
aufgaben
bone
chicago
ecke
fied
gemeinde
golf
haiti
helping
hoffentlich
imagination
ker@@
letztendlich
ll@@
objekte
responsibility
return
schafft
scher
selber
sozusagen
städten
tissue
ute
verkauft
wächst
-year-old
ach
brand
cal@@
folge
gest@@
iraq
jährige
landscape
leiden
notion
reduce
respect
soldaten
stoff
studying
union
va@@
boat
card
ckt
diversity
flo@@
flug@@
gebiete
gewonnen
lautet
lebte
legal
nearly
noise
ously
painting
problemen
reagieren
stische
sun@@
agree
bürger
cal
differently
engage
entlang
fellow
fer
gelangen
gilt
herausgefunden
knowing
kr@@
kur@@
leading
leid
lung
modelle
obama
particles
pollen
ry
sam@@
saß
schätzen
stu@@
teilt
vollkommen
window
än@@
achieve
ant@@
civil
core
dor@@
elles
fil@@
gewicht
hr@@
ide@@
influence
linken
mp@@
möglicherweise
necessarily
religious
scheinen
wide
wood
2009
ap@@
beeinflussen
beschäftigt
cs
engine
figured
forever
fortschritt
fy
g-@@
genen
hair
hunger
karriere
lebten
management
relationships
sonnen@@
turning
weiteren
wing
zug
ändert
aging
alität
atmosphäre
behandelt
bewegungen
bread
dagegen
darf
ender
gan@@
gers
hall
kommunizieren
kurzem
lucky
methoden
missing
moleküle
mouse
ology
opportunities
pen
polio
sch
senden
setzte
sion
sitzt
throw
weiteres
wohn@@
21
aler
besitzen
blog
despite
dieselbe
effort
faces
fields
interact
ismus
jungs
kraft@@
len
lesson
meilen
paris
perspektive
shift
staat
steuern
ultimately
wandel
welchen
zone
base
bezahlen
buchstäblich
det
dh
entwerfen
foreign
forscher
hell
jahres
klimawandel
lied
on-@@
stopped
themen
umgehen
versus
wahrscheinlichkeit
wirtschafts@@
1.@@
20.
arms
besseren
bush
chaos
elements
fairly
fehl@@
fleisch
gre@@
id
interface
kontakt
kunden
ner@@
nochmal
ns
photo
schwarze
teten
titel
trained
uganda
zuhause
19
arbeiter
brings
cre@@
durchgeführt
eis@@
engineers
erstellen
form@@
fragten
fuhr
hi
ien
meistens
members
mexico
perfekt
phänomen
sommer
tausend
temperatur
transformation
typical
vollständig
worüber
zell@@
10@@
absolute
baum
boot
col@@
cy@@
events
gestern
gras
hinein@@
ic@@
intelligenz
join
kten
organic
peter
plan@@
shares
sir
streets
unbedingt
unterstützung
vers
visit
wesentlichen
wirkung
year-old
.com
afraid
apply
attack
benefit
brief
colors
competition
dar
distance
ents
fashion
gedanke
gefängnis
hervor@@
j
mathematics
norden
post
radi@@
raum@@
schwester
slowly
sozial@@
unterschiedlichen
wunderbare
zusammenarbeit
afford
benefits
beschreiben
circle
creatures
digen
dritten
edge
ends
entsteht
entwickelte
experten
female
french
ft@@
hauptsächlich
hergestellt
hohen
ia
kennt
lauf
licht@@
lies
matters
ment@@
mögliche
stufe
suffering
tom
traffic
vermutlich
veröffentlicht
virtual
ying
aktiv
begins
bett
cloud
degree
deutlich
easier
falsche
fre@@
gehalten
gender
justice
lation
laufe
lernt
lö@@
milliarde
mitten
names
profound
rat
row
sau@@
stischen
van
wind@@
zufällig
adults
campaign
date
din@@
emotions
experimente
factory
flu
hohe
identity
igen
invest
meters
pres@@
präsident
responsible
schlag
sol@@
symbol
viren
weder
wohl@@
ziert
überzeugen
überzeugt
behalten
berei@@
brachten
breast
brother
cheap
coast
cts
engineer
entirely
familien@@
fighting
führung
gelesen
heads
hel@@
holding
hopefully
investment
irgendetwas
neuer
organ
reicht
tions@@
wisdom
ziele
22
begeistert
bildschirm
buch@@
catch
creation
crime
describe
fascinating
finished
gefahr
gift
handel
hund
häuser
interessieren
jährigen
legt
los@@
losen
massen@@
moves
necessary
opposite
rein
schutz@@
seriously
sold
spo@@
starb
stress
tue
adam
ali@@
arbeiteten
basiert
billions
camp
capable
chen@@
consumption
gewissen
helps
hü@@
insekten
kümmern
las
leben@@
ließen
motivation
mütter
otherwise
prote@@
raised
räume
shouldn
sick
stock
texas
tons
trend
vergleichen
wh@@
wissenschaftlichen
äu@@
arts
emotion
erster
fell
hirn@@
loss
master
meat
passt
predict
rahmen
stell@@
tiefe
tten
uner@@
universal
verbracht
verbreitet
volle
walls
woher
ak
bemerkt
betrifft
count
ctions
experiences
gesetzt
glaubt
haft
insects
kurze
lack
lets
offer
option
phones
print
rot
sister
speech
statistics
tin
ved
übertragen
95
aten
aufnahmen
babys
bf
bil@@
caught
chi@@
chip
deeply
diabetes
echten
erzähle
institution
klein@@
lachen
languages
lieber
morgens
operating
pf@@
relevant
ris@@
sei@@
sive
spar@@
sparen
spirit
sport
spot
verhindern
verlangen
zeitalter
affen
alleine
aufnahme
beach
derek
drittel
economics
elemente
eli@@
enjoy
fach@@
fläche
geburt
hinweg
humor
importantly
klang
leaving
photos
principles
schönen
separate
sequence
sowie
tricks
tt
versuchten
zählen
airplane
anderem
angeles
article
barkeit
bauern
church
civilization
cting
desire
einsetzen
email
erstaunliche
fall@@
führten
großteil
independent
invisible
ise
ktion
la
lau@@
lern@@
opened
perfectly
sam
saving
schla@@
starke
steigt
steps
sudden
vast
wil@@
wunderbar
23
3d
app@@
ari@@
bieten
bild@@
chair
cr@@
cycle
damage
dauert
ed@@
finanz@@
frank
iphone
kalifornien
könnt
lady
meeres@@
mur@@
netzwerke
ober@@
oceans
pping
schi@@
spaces
teil@@
uni@@
val@@
2,000
ang@@
background
beat
bees
bereiche
blut
desert
erkannte
everyday
film@@
fund
galaxy
hintergrund
hor@@
ies
institutionen
korea
kü@@
kürzlich
mouth
normally
organismen
ren
schwimmen
sters
tomorrow
vo@@
wahrnehmung
warming
ähnliche
according
argue
atom@@
augen@@
bekamen
bis@@
cat@@
due
eingesetzt
erwartet
fourth
fri@@
gehabt
handy
herr
keeping
knochen
landschaft
mach@@
majority
miss
nannte
normale
organized
ori@@
passen
patent
praktisch
rural
sector
sli@@
stellung
stisch
stuck
studied
survival
viruses
wuchs
10.000
2003
2004
agriculture
analysis
aufhören
believed
bildungs@@
bloß
brauchten
concerned
deliver
dreams
drin
driven
electrical
fold
geschickt
herausforderungen
jump
landwirtschaft
mas@@
motion
nieder@@
rücken
sä@@
tischer
trägt
verwandeln
wisst
wür@@
älter
0@@
bedeuten
bestimmen
cally
ec@@
existieren
failed
gegenteil
gehirne
harder
hate
hoffen
le-@@
län@@
nutzt
ny
poly@@
st-@@
surprise
wahre
wald
zo@@
17@@
abhängig
ameisen
bienen
childhood
dahin
ese
galaxies
insel
invited
irak
journalist
joy
kenya
kurzen
leiten
metaphor
moderne
molecule
normalen
opfer
person@@
puts
schmerz
ser
thinks
toward
trip
unternehmer
verantwortlich
verbreiten
weißen
zen@@
ären
2001
27
ced
chan@@
commercial
compared
designing
erkenntnis
fiel
filled
gay
gehören
gewisse
grand
halt
hang
hidden
husband
hyper@@
inneren
linien
managed
mindestens
paint
principle
profit
schaute
sel@@
soil
sphere
sted
tter
vögel
bauten
bezahlt
constantly
cul@@
dürfen
elten
fal@@
generationen
getötet
häufig
individuen
lebewesen
oni@@
opening
oxford
player
shapes
tives
to-@@
wahl@@
wealth
werbung
whenever
yesterday
zogen
öffentliche
überrascht
advantage
bares
brauche
debate
dimensions
direct
eindruck
european
failure
fern@@
followed
genauer
gezogen
händen
interagieren
kat@@
kontext
lam@@
letter
mach
microsoft
mothers
multiple
muscle
ordinary
plane
poster
pun@@
random
rid
sauerstoff
shoes
standards
steel
sten@@
transform
transition
two-@@
täglich
ving
zation
zt
ßen
army
ash@@
brothers
bürger@@
corruption
covered
dinner
drawing
erscheinen
eure
fisch@@
gas@@
identität
körpers
leg
losing
menschen@@
n-@@
polizei
rief
see@@
stands
tom@@
tough
treated
unless
voices
wearing
weile
weißt
whom
yo@@
16@@
2006
26
affect
annehmen
ansicht
artificial
blo@@
compare
cy
drüben
elektro@@
ence
entdeckung
erklärung
generations
gestorben
grün
illusion
increasingly
kurs
lehren
lie
musst
nah
ning
om
pages
prevent
richten
signals
stanford
tal@@
tel@@
unterscheiden
wan@@
warm
öffentlichkeit
65
ats
aufbauen
belief
bli@@
bot@@
britain
cap@@
char@@
cht@@
cli@@
clip
collective
continent
distribution
dly
ei
emotionen
eri@@
expression
fahrer
fla@@
garten
gespräch
hum@@
ingly
krank
leadership
leaves
lieblings@@
lin
martin
match
mittleren
nationen
paying
persönliche
post@@
pounds
producing
professional
represent
rätsel
schau@@
schlechten
seat
sed
sicherheits@@
solch
soviel
stein@@
trends
tzen
va
versorgung
vorteil
weird
wel@@
wired
wunder
250
af@@
angenommen
anwenden
bietet
blin@@
cortex
currently
definieren
double
equivalent
ernährung
exists
fol@@
früh
ghana
gol@@
holes
hä@@
ie@@
interview
kreis
lager
lä@@
meiste
märkte
planning
probe
ra
regionen
relativ
schlimmer
schlüssel
scht
sho@@
signale
stammt
stream
super
van@@
vehicle
verbindet
verschwinden
wars
well-@@
ably
abschluss
bell
bright
classroom
denk@@
einheit
enten
erhält
eric
fis@@
fängt
fü@@
galaxien
garden
gates
hasn
inspiriert
jack
kb
lass
library
markt@@
mengen
mü@@
schicht
sieren
tar@@
tierte
tour
wichtigen
&apos;@@
20th
associated
bear
businesses
collect
copy
described
dinosaurs
disaster
dry
evil
experts
fr@@
gam@@
gkeit
highest
honest
japanese
launched
leader
mentioned
mile
mortality
notwendig
pleasure
proud
rau@@
stan@@
standen
starten
verhältnis
vorfahren
weapons
worried
appear
arbeit@@
ase
caused
chemicals
drink
erfinden
fat
feelings
flies
ften
gefahren
gegensatz
grandmother
gsten
heben
holz
houses
kn@@
lunch
mus@@
neighborhood
quellen
ray
regen@@
respond
roll
smell
strategie
strategy
strei@@
suppose
wobei
worldwide
äre
baut
bereichen
berührt
blau
blocks
bruder
canada
consequences
dach
daily
deinen
digitalen
einiger
erungen
faktor
forced
gefährlich
gens
glas@@
grown
halbe
killing
komplexe
kulturen
küste
layer
limited
malen
mountains
nest
organs
pole
programme
schuhe
seitdem
spring
surprised
threat
traditionellen
und@@
ales
aller@@
besondere
bing
chemistry
cognitive
conscious
department
dinosaurier
einzel@@
essential
fle@@
gelöst
heisst
hn@@
importance
kindheit
korruption
lauf@@
letters
maus
mess@@
ned
roughly
scan
sm@@
spielte
streben
thoughts
unge@@
ure
wert@@
wir@@
wirtschaftlichen
x-@@
afrikanischen
aspekt
awful
back@@
bes@@
beschlossen
blatt
bru@@
charakter
chicken
comp@@
coral
elte
emerging
fantastisch
fill
fire@@
forschungs@@
früh@@
grundlegende
grundsätzlich
hen@@
hil@@
homes
ii
interaction
lessons
ls
manhattan
medizinische
mexiko
nervous
pe
pin@@
ras@@
rates
sad
schaden
schnitt
sexual
stuhl
teeth
teilchen
trag@@
tä@@
unterricht
verfügbar
100,000
affected
augenblick
bang
clo@@
construction
democratic
dran
eng@@
equal
erd@@
fernseh@@
flü@@
gäbe
heavy
hängen
höher
inner
molecular
müsste
natürlichen
pre-@@
präsentation
reduzieren
schien
schw@@
shop
springen
strom@@
studieren
tab@@
tausenden
ted@@
tor
treiben
tsch@@
waves
wear
wenigen
zeitung
ß
ative
baute
bestand
cambridge
cke
cla@@
clinical
club
cro@@
drücken
entspricht
fördern
gespielt
howard
innovative
nachbarn
nt
null
persönlich
prime
resource
schei@@
sel
soldiers
spoke
spr@@
taste
tony
trials
vermitteln
wave
westlichen
5.000
700
angesehen
ast
beantworten
closed
contact
cri@@
dogs
dots
down@@
einrichtungen
empty
entstanden
erscheint
ersetzen
erter
fabrik
fication
gefallen
gew@@
hom@@
kam@@
kit@@
married
mehr@@
persönlichen
pil@@
practical
rain
raus@@
relative
sites
solar@@
tail
three-@@
ven
verbrachte
werten
wire
zerstören
800
asien
beweisen
bon@@
chtet
cted
dynamic
folgende
genom
gravity
herunter@@
lagen
mag@@
mes
motor@@
northern
ol
politiker
prove
rand
remote
rio
rufen
stärke
tedx@@
teuer
tungen
wand@@
windows
wunder@@
za@@
accident
alzheimer
aufzubauen
australia
avoid
bein
effectively
entworfen
erkennt
fan@@
fossil
gei@@
gemeinden
haltung
helden
hinsicht
ish
jedenfalls
junger
kerl
konflikt
lektion
lichsten
mm@@
momente
newspaper
origami
quasi
shi@@
silicon
sprach@@
ssen
technical
träume
untersucht
users
viertel
vis@@
weather
wechseln
zweck
14@@
addition
adult
alize
architekten
beinahe
berichten
curious
dealing
display
equipment
erlebt
facing
feststellen
finish
freien
fährt
galaxie
gap
gelassen
graduate
horse
kaffee
kilometers
kreieren
liked
löcher
mathematical
müll
ping
restaurants
saturn
schwer@@
sharks
sinn@@
specifically
unabhängig
unterrichten
verteilt
120
account
alized
anhand
aufgebaut
bekannten
beweise
cultures
dat@@
druck@@
elektrizität
ev@@
existence
florida
fresh
fuß@@
gesundheitswesen
hl@@
höre
ically
initiative
intellectual
intuition
ky
maps
movies
offen@@
pac@@
photographs
possibilities
protection
raten
researchers
richtungen
rote
round
schwarzen
schwierigkeiten
selten
setting
simulation
spectrum
statistiken
stärker
talent
underneath
user
verfahren
wen
whereas
zerstört
3,000
advanced
atmen
battery
bit@@
brechen
considered
cross
demand
deten
falten
fern
fro@@
führer
gebeten
gem
geändert
gps
hadn
hau@@
hör@@
klima@@
kra@@
langer
long-term
medikament
nord@@
notes
ologie
orbit
pacific
post-@@
pur@@
rational
rechts@@
scene
sees
situationen
solved
sources
spiegel
sugar
techniques
tele@@
welchem
wirk@@
wirkliche
zivilisation
1960
barer
bedürfnisse
beobachtet
besuchen
ble
ble@@
breath
brian
chain
comfortable
controlled
deeper
dunkle
durchschnittliche
erin
experienced
filter
folie
fun@@
gain
gegend
gelegt
glas
homo
hydro@@
inhalt
kers
kochen
komplex
lichem
liquid
mul@@
nis@@
nötig
ologen
peak
perception
picked
plat@@
players
proteins
pul@@
radical
regular
schlafen
seh@@
selling
sides
sil@@
suggest
sum@@
sätze
telefon
testing
typically
vorstellungen
vote
zauber@@
agenda
blieb
calling
cam@@
chemikalien
credit
define
definitely
diagramm
dimension
ehe@@
entdeckte
express
geld@@
generate
großmutter
heißen
hinten
hol@@
human@@
ils
ines
introduced
kampagne
kitchen
marine
method
mund
nutzung
nützlich
p-@@
plans
reaction
s.
saal
silk
stood
tors
weiße
wesentlich
willst
zugänglich
architect
blauen
centers
cents
characters
ched
crash
diet
engagement
erfindung
erstellt
evolutionary
exchange
explains
explosion
flat
folgt
folks
gegenwart
geographic
goals
grosse
grüne
hallo
identify
ierte
internationalen
kompliziert
kopf@@
leistungs@@
lustig
mitglieder
pause
pos@@
safety
schalten
sets
target
teenager
therapy
vollen
vorne
wen@@
wirken
anteil
arrived
autor
brücke
connections
convince
digitale
effektiv
efficiency
ep@@
erwähnt
former
geheimnis
gelebt
gore
gs@@
ham@@
ht
lediglich
lifetime
lli@@
load
med
menschlicher
metal
mini@@
naturally
online-@@
personally
platform
pop
property
siert
smith
solange
sowas
stupid
tation
tel
valuable
variety
verbessert
verlust
writer
acts
bedarf
büchern
cl@@
click
derzeit
dienst
diskussion
ecosystem
entwicklungs@@
entwicklungsländern
epidemic
erwachsene
gefällt
generally
gesund
grünen
heim@@
herr@@
herren
illegal
ina
insbesondere
kes
kriegs@@
las@@
lokalen
non@@
op
pool
prinzipien
q@@
queen
radiation
represents
schimpansen
seltsam
singen
soci@@
southern
stoßen
theme
tin@@
toten
transport
video@@
viel@@
vorhanden
ward
wieviel
zitat
zz@@
übrig
85
achse
achten
afrikas
air@@
atoms
aufregend
außen
bay
beschäftigen
burn
buying
capture
carrying
computing
el-@@
ertes
expected
fac@@
faith
flug
freundin
geschäfts@@
hierher
innere
joe
ladies
mama
maßstab
metapher
moralische
primary
psycho@@
regen
regierungs@@
roll@@
saved
schmerzen
sentence
stoffe
straßen@@
suggests
tot
unterstützt
versteht
vorhersagen
webseite
alism
behaviors
beinhaltet
beschloss
blogs
carefully
cas@@
co-@@
driver
dy@@
einiges
exercise
factor
films
formed
fte
gemeinschaften
goods
ig
illness
liefern
mention
molekül
müssten
physiker
pilot
pra@@
prä@@
replace
serie
squ@@
struggle
sy@@
tz
volk
vulnerable
wenden
wettbewerb
wüste
zuhören
äußerst
analyse
ank@@
anstelle
applied
appropriate
ba
brach
cking
clever
defined
depends
eg@@
enorme
environments
erwachsenen
fischen
geräusche
gli@@
glo@@
grundlage
hinzu@@
honor
ical
increasing
jim
kapital
kombination
krebs@@
laboratory
mes@@
nden
orange
politicians
previous
reward
risks
roads
roof
roots
steven
string
sum
swim
systemen
tiges
trillion
unglaublichen
untersuchung
ur
verbreitung
australien
awareness
axis
bank@@
beispielsweise
broke
chemie
ching
cked
cooking
cutting
destruction
director
ear@@
entstand
felder
ffen
fusion
glamour
großartigen
gulf
hab@@
hat@@
henry
hielten
hnen
kurve
leb@@
marriage
milk
nä@@
pack
piano
proben
rare
rb
relatively
rennen
require
risiken
seht
senses
serve
situations
slo@@
speziellen
stammzellen
strength
stro@@
ths
vagina
voraus
züge
12@@
21.
accept
allgemeinen
arm@@
ausmaß
ausstellung
bedenken
comfort
confidence
convinced
crowd
diert
ente
entfernen
enti@@
gebieten
gegründet
gesichter
hurt
infected
introduce
invention
lay
lincoln
location
log@@
manage
miss@@
mistake
mix
mode
mut
nachts
ple@@
pollution
ppe
pped
received
recorded
ride
schrift
sektor
selbstverständlich
sending
sophisticated
stic
telefon@@
u.k.
uns@@
unterschiedlich
veränderte
visible
wed
wirtschaftliche
wondering
zer
ancestors
anwendung
beweis
channel
cing
discussion
eastern
fail
fel@@
gegenseitig
grab
heran@@
innen@@
kanada
kul@@
laptops
leiter
menschliches
mirror
mitarbeiter
neuron
novel
pas@@
passionate
promise
que
requires
runs
schlechter
schrecklich
section
setzten
sms
solcher
spezi@@
stes
survey
taliban
teste
tiven
u.n.
verteilung
vertraut
ws
überraschend
1.000
alist
ana
ausgeben
bac@@
beschreibt
bezüglich
comics
consumer
cop@@
damen
dur@@
ely
emissions
encourage
error
extra@@
fen@@
five-@@
füllen
gebraucht
gekauft
germany
grid
healthcare
hits
industri@@
internationale
irgendjemand
kannte
katastrophe
kirche
lächeln
may@@
medizinischen
mistakes
nahrungs@@
ours
ozeane
ppen
prepared
processes
properties
psychology
sa
schlägt
sse
strand
style
switch
therapie
thin
tracking
trinken
tze
unit
unlike
vaccine
versagen
verwandelt
voraus@@
vorbei@@
vorzustellen
west@@
worauf
wovon
überlegen
acting
ah@@
anfing
aufs
battle
bemerken
bob
brazil
clay
cure
darunter
dauerte
di
entrepreneurs
est@@
explanation
fan
fying
gemeinsame
grafik
hans
input
instruments
kapitel
kenia
ko
manufacturing
meetings
movements
neighbors
ohren
ory
pm
poetry
protected
quantum
rollen
sal
schlüssel@@
schritte
sticks
sw
tac@@
tim
top@@
tö@@
unusual
ville
watched
weiterer
werke
witz
wofür
übernehmen
überwinden
20-@@
2011
28
32
added
amy
arab
aussage
bronx
burning
cin@@
collaboration
continued
curve
empathy
employees
enz
existing
exploration
gefähr@@
grossen
hollywood
holz@@
interpretation
ished
jesus
lake
lang@@
linked
meist
member
nde
obje@@
opinion
ought
percentage
ph
presence
presentation
reached
rechnen
resultat
seid
shall
smile
solving
ss@@
stin
tanz
technological
tics
vermeiden
willen
wine
zeigten
zähne
2002
arti@@
berg@@
besseres
betrieben
bike
birthday
bling
bomb
chinesische
combination
components
court
darstellen
durchschnitt
electronic
erende
facts
farmer
fewer
fingen
freie
gal@@
geln
golden
hill
hoping
hrt
hö@@
ideal
interests
jung
koran
lar@@
logic
mat@@
mittels
musical
nicht@@
ore
oren
organe
penguins
pol@@
recht@@
sample
schreibt
schwieriger
sensitive
stand@@
telescope
transparent
wahrnehmen
wechsel@@
ße
15@@
absicht
accurate
akzeptieren
annahme
armee
asks
besessen
bo
bubble
cards
closely
coal
congress
deutschland
dichte
dimensionen
dre@@
ears
educational
einfaches
erkrankungen
existenz
ey
falling
flowers
garage
gemälde
haften
hing
hospitals
hörten
jan@@
kevin
kle@@
kleidung
kontinent
konzentriert
kriege
ler@@
literatur
lying
manager
mau@@
mitteln
momentan
nase
occurred
parallel
physi@@
productive
quiet
rec@@
religionen
ruf
schauten
schuld
sher@@
skill
sport@@
süd@@
südafrika
süden
teilweise
wat@@
wein@@
zierte
0-@@
amounts
ash
ast@@
automatisch
bag
benjamin
besitzt
bottle
cat
debatte
derer
dge
dischen
dramatic
economists
einstellung
emp@@
erweitern
fakten
framework
gdp
gebrochen
gebäuden
gemeinsamen
genetische
gerechtigkeit
glaubte
gold@@
grün@@
hardware
hero
heroes
hydrogen
ics
interessantes
islands
konsequenzen
lebenden
lehre
literature
mark@@
materi@@
musik@@
nat@@
organisieren
partners
perfekte
pfund
plastik
realen
schiff
schneiden
shake
shanghai
shark
shoot
spro@@
spüren
st.
stehe
stronger
tam@@
theit
three-dimensional
traveling
tritt
tsunami
ultimate
umfeld
un
unver@@
verbrechen
violent
wake
wellen
worum
wünschte
zier@@
zurückzu@@
zy@@
all-@@
aufnehmen
author
blaue
brust
büro@@
c.
chef
cru@@
enorm
enthalten
enthält
ergibt
farb@@
fed
fishing
flächen
funding
funktionen
geholfen
hot@@
hän@@
jahrzehnt
joke
kabel
larry
lebe
lifestyle
mechanical
meinte
pulled
rapidly
rü@@
sar@@
score
sight
sitz
songs
stoff@@
tasche
tiv
todes@@
tonnen
unterhaltung
verstehe
weltweiten
woran
xi@@
zucker
11.
19.
actions
aktivitäten
behavioral
besagt
bla@@
chancen
collapse
correct
de-@@
dieselben
dropped
eggs
erkannt
explo@@
faktoren
fehlt
geräusch
glücklicher
grain
gun
haup@@
head@@
heim
include
inen
initi@@
innovationen
insight
irgendeine
kontrolliert
lea@@
low-@@
magie
mitglied
mutter@@
ologist
performing
presse
psych@@
psychologie
pt
regions
reputation
rie@@
rooms
samen
sl@@
soft
soweit
stat@@
technique
tot@@
treating
tte
tube
ture
weshalb
wirkt
wohlstand
zerstörung
ähnlichen
ansieht
april
aufgeregt
auseinander
ausgaben
bekomme
bericht
bildet
böse
cameras
clouds
conventional
creature
dame
daniel
decline
elektrische
epidemie
erforscht
erhöhen
erlebnis
explained
factors
fake
flasche
froh
geschenk
iger
ingenieure
ites
jahr@@
jeff
kameras
lebensmittel
ll
lügen
macht@@
mangel
microbes
milli@@
nen@@
new@@
niveau
outcome
quar@@
relate
respekt
rocket
satellite
schatten
schl@@
schlug
schü@@
shaped
singing
smo@@
statement
subjects
sunlight
sustainability
tanzen
tape
tonight
tzt
verlauf
ya
änderungen
0,@@
100.000
afternoon
amazon
aspect
aspekte
beibringen
bert
bio-@@
bones
brand@@
button
collection
conservation
county
dam@@
darstellung
demonstration
edi@@
ernsthaft
fasziniert
folgenden
fortschritte
gottes
hinzu
increased
inzwischen
ized
keeps
measured
mehrheit
nachzu@@
nis
nose
offenen
parks
programmieren
religions
reverse
schu@@
shame
sie@@
spät
tank
tat@@
test@@
topic
transportation
trat
ty@@
tü@@
ursprünglich
vari@@
via
vieles
welten
wissenschaften
10-@@
1990
55
activities
algorithms
andrew
anschaut
architects
attempt
b.
batterie
behaupten
chips
combine
cou@@
dargestellt
detect
drives
entfernung
ereignis
ero@@
features
feeding
feynman
figures
fokus
fundamentally
gat@@
generated
gentlemen
genügend
gewinn
ited
kaufte
komm
komplexen
length
lokale
magne@@
matrix
meaningful
mike
monkeys
musiker
nebenbei
nelson
nor
oc@@
oxytocin
poli@@
proteine
puzzle
raw
records
release
remain
shor@@
sicht@@
sper@@
split
sty
super-@@
val
verglichen
verkehr
vielmehr
vierte
walks
wenigstens
wolken
womit
wä@@
é@@
alisiert
analy@@
au
beschrieben
blase
challenging
climb
ctive
defense
deli@@
determine
dick
dige
doubt
durchführen
dün@@
effizienz
eingeführt
eingeladen
election
engaged
erinnerung
exact
expand
fach
fantastische
finance
gab@@
ge-@@
gericht
german
gesammelt
globe
graben
gue
hunde
hut
ischem
johnson
kop@@
krieges
lee
lichkeiten
liefer@@
medizin@@
mikroben
mol@@
nachgedacht
narrative
nie@@
noten
optimi@@
options
phrase
pizza
pure
reference
regime
remains
retro@@
schau
scheinbar
schen@@
spektrum
starben
stieg
stil
surgeon
swimming
tea
tested
tic@@
trafen
unfall
upper
vol@@
younger
zte
ära
13@@
2,@@
33
48
ams
angeht
basierend
beenden
betreiben
bibliothek
bus@@
combined
conclusion
definiert
dest
dilemma
dose
eindeutig
evening
expedition
feuer@@
gedicht
gespräche
gewählt
hervor
hof
hong
horrible
hung
informations@@
interaktion
interviews
jones
kno@@
launch
lebende
lichste
linear
mall
manchen
marke
merken
mittlerweile
nan@@
ologe
paradigm
philosophy
physically
pinguine
preise
prices
ron
route
sauce
she@@
sorge
spa@@
starken
stephen
stor@@
strahlung
tale
tan
tiefen
touched
trau@@
unteren
vehicles
verfolgt
verursachen
vogel
vorher@@
vorteile
w-@@
waffe
wherever
wireless
worlds
zusätzlich
0.@@
authority
ball@@
bein@@
besorgt
beteiligt
billionen
blumen
boring
brasilien
breaking
by@@
clinic
clothes
dd@@
del
dense
desk
enable
ernähren
expert
fein@@
frame
frankly
grundlegenden
heiten
indischen
ini@@
instrumente
ki
kti@@
küche
kümmert
lands
langsamer
laser
lebenserwartung
m-@@
mitnehmen
neither
obsessed
ooh
pair
perform
poem
potenzial
processing
rad
schild
schließt
shut
sicher@@
sichtbar
signs
sky@@
speziell
such@@
suit
surely
sweet
tauchen
techniken
tiefer
titan
title
tran@@
twi@@
umzugehen
underwater
villages
weisheit
wunderbaren
wurzeln
wände
zusammenarbeiten
zweimal
36
50,000
algorithmen
applications
aufgewachsen
ausgesetzt
bahn
baseball
bemerkte
binden
biologische
bogen
brust@@
bung
circumstances
connecting
copyright
danger
decken
dete
dirty
divided
dozen
ehe
eier
einst
embrace
flügel
functions
gefangen
glücklicherweise
gran@@
grand@@
halb@@
inseln
interactive
kulturelle
lg
liebte
mate
maß@@
maßnahmen
messages
national@@
neben@@
nett
netz@@
operate
operationen
plastik@@
printing
privat@@
recording
remind
schwarz
schönes
selection
session
sis
solid
somewhat
sons
stable
stadt@@
staff
stet
stiftung
sü@@
verschwunden
verwendung
well-being
wright
ye@@
ältere
älteren
überraschung
2050
ambi@@
artigen
auff@@
außen@@
bee
bet
blut@@
boom
branche
buchstaben
bü@@
concrete
derselben
dert
dliche
entertainment
erer
faszinierend
feature
fingers
fs
functional
für@@
gabe
gesamt@@
geschlagen
geschäfte
gewisser
haie
halb
handle
i-@@
ill@@
implications
isi@@
jane
killer
kostenlos
kurz@@
largely
leg@@
makers
mandela
minus
mischen
monitor
muslim
mystery
newton
paintings
quarter
reform
required
root
räumen
seele
sex@@
sions
sle@@
sozi@@
spider
stift
tex@@
tiver
transformed
träumen
unexpected
virginia
volume
wechsel
wem
william
wise
wn
wondered
zierten
21st
30-@@
abraham
abstract
acht@@
advice
agency
alien
alismus
anischen
atten@@
auen
boxes
chinesen
chter
clinton
cm
collected
cook
courage
darstellt
decke
diagnose
distributed
dna-@@
drogen
fliegt
funk@@
grass
greenhouse
herstellung
hieß
höhere
interessanter
internet@@
ität
jener
joshua
kei@@
kohle
kreativen
könig
lasse
lighting
ländlichen
ming
niemanden
palm
ppt
reg@@
ruhe
schn@@
seltsame
soli@@
spi@@
stoffen
sy
tlich
tungs@@
variation
verliert
visuelle
vorstellungskraft
watt
yed
yer
zus@@
ähnliches
1000
africans
afrikaner
ai
alter@@
ander@@
ass
bedeutete
berge
bezeichnen
bezeichnet
ckte
classic
component
cow
dahinter
dancing
deaths
dot
egypt
equation
exploring
fahrzeuge
flew
flugzeuge
fürs
geleitet
genetischen
genius
geteilt
green@@
grenz@@
heu@@
hr
iges
infinite
ink
internal
investitionen
ir
jähriger
latest
liber@@
lieren
maß
metern
mid-@@
nahen
nationale
nutz@@
ologists
participate
pel
pie@@
projekten
released
resistance
resultate
schießen
schwierige
schä@@
scott
simplicity
suchte
umge@@
ungsk@@
vorbereitet
wahlen
water@@
weite
wär@@
ziel@@
zufrieden
ägypten
ökosystem
19th
60s
admit
ads
alex
angel@@
anlagen
anscheinend
anten
bars
beachten
bedrohung
benden
busy
carolina
chapter
charity
charlie
computern
concepts
consumers
cup
delhi
dlich
economist
ek@@
empfin@@
entdeckungen
fliege
fore@@
fortune
gate
glichen
hafte
has@@
hinzufügen
hne
housing
identical
individu@@
inspiring
islam@@
jahrzehnten
jazz
journal
kingdom
kla@@
loop
mad
maker
mechanism
meme
militär@@
moore
mächtig
männchen
odd
physicist
plate
plattform
pon@@
potentially
rat@@
reduziert
regi@@
schaue
schlussendlich
schäd@@
ski
slums
sonnenlicht
staat@@
studium
störungen
sw@@
symmetry
tate
tau@@
tee
trage
umgeben
unknown
voneinander
wa
yorker
zentren
är
20,000
29
aktion
anderson
angle
anzusehen
apo@@
arabischen
atlantic
aufbau
begegnen
bias
bibel
bles
bricht
cho@@
circuit
computer-@@
dauern
deiner
design-@@
dolphins
domin@@
falschen
feiern
flower
four-@@
gegenden
geistes@@
gewe@@
gras@@
gray
greifen
hren
incentives
inspirieren
isieren
joined
joseph
kre@@
kreative
landen
lebendig
leichter
lift
marks
measuring
milch
militär
mo
moral@@
müll@@
obesity
oran@@
packen
para@@
parking
passing
pflanze
phot@@
proof
präsidenten
rose
scared
sculpture
seti
severe
spuren
späten
stayed
struck
t.
tag@@
te-@@
tech
technischen
thin@@
tisches
trug
unclear
versteckt
victims
welle
wheel
wunderschöne
zuschauer
zü@@
öffnet
ökonomen
1-@@
actor
ai@@
anische
ann
antwortete
arbei@@
arguments
asteroid
automatically
bekämpfen
bel
beruf
blicken
breathe
careful
causing
celebrate
chern
chose
christ@@
cies
cyber@@
dean
depend
design@@
dient
dische
divide
doppelt
dunkel
erhielt
everest
existed
fehlen
fei@@
flexible
france
geburtstag
golf@@
gram
grows
gru@@
hier@@
hinterlassen
hon@@
iled
ine@@
installation
invent
jahrzehnte
klassenzimmer
klinik
kong
lon@@
loses
lovely
ly@@
machst
mathematiker
mm
mä@@
nachbarschaft
nas@@
neuigkeiten
organism
ots
ped
perfe@@
pferd
photo@@
pile
placed
planen
pläne
pocket
powered
powers
pregnant
riesen@@
rock@@
romantic
samkeit
sche@@
sches
schicksal
schrieben
schwarz@@
shar@@
shell
ships
snow
stei@@
steine
tall
tie
tierten
tigung
trennen
unterwegs
usw
verdient
vorgang
vorzu@@
wissenschaftlern
work@@
wu@@
wünsche
zahn@@
70s
ade
anlage
anstieg
arthur
auswahl
autism
awesome
bemerkenswert
bende
blei@@
blätter
carried
chemische
chinesischen
christmas
cken@@
density
dent
dig@@
digt
dinger
directions
ech@@
elektrischen
ently
entscheidend
ereignisse
false
forsch@@
funktionierte
geruch
getrennt
gleichung
gor@@
gramm
griff
habitat
ham
hip
ize
jay
klima
kugel
kun@@
lenken
letzter
liefert
magnetic
meer@@
monkey
moralischen
neten
november
nowhere
pir@@
portrait
ration
relation
roman
russia
sahara
schichten
schweden
slides
spezielle
sprung
stoppen
stru@@
tasks
ter-@@
terror
tower
tzte
usual
verb@@
vermögen
versorgen
ware
web@@
whales
wichtiges
zahl@@
zin@@
72
abgesehen
alisierung
angriff
appreciate
aside
bers
bewohner
biologischen
capit@@
claim
constant
cry
drehte
drogen@@
e-mail
ear
electro@@
epidemi@@
erhöht
estimate
ets
extinct
ffs
funktion@@
gefüllt
genießen
heiß
hello
higgs
highway
hs
inner@@
insgesamt
intense
interestingly
irgendeinem
islamic
ium
komponenten
kö@@
letztlich
lige
march
mei@@
multi-@@
nation@@
occur
offene
oma
optimistic
papers
particle
pink
positiv
productivity
publi@@
recovery
rever@@
schreib@@
schte
schwere
script
soul
stock@@
synthetic
tere
th-@@
toxic
translate
tter@@
um-@@
ursprung
virtually
vorge@@
vorhin
vorschlag
welcome
weltraum
werbe@@
wirft
zeich@@
zeitraum
zä@@
üb@@
üben
3.@@
agreed
allo@@
an-@@
anger
august
begreifen
beigebracht
berechnen
betroffen
bible
bizarre
border
centuries
comedy
congo
conver@@
dazwischen
distant
drauf
drittens
dungen
dunkelheit
dynamics
economies
eigenschaft
ending
energi@@
equally
erenden
ering
erneut
erwärmung
ette
facial
fahrzeug
fau@@
fifth
fressen
gemein@@
gesundheit@@
geworfen
gründete
half-@@
happier
höchsten
inten@@
jun@@
kohlenstoff
kä@@
legacy
legte
mainly
matic
meister
mess
mö@@
nannten
neigen
net@@
ngos
open-source
opposed
origin@@
output
pfer@@
philosophie
populations
presented
quest
remove
scanner
schlu@@
sech@@
selbe
sender
shoulder
spiegel@@
stadium
stations
sweden
symptoms
tal
teufel
tja
treibt
truck
u.s
var@@
vergnügen
vir@@
weak
weltkrieg
winzig
übersetzen
ür@@
2.@@
abed
akt
alpha
anwendungen
ausmachen
balloon
beides
bene
berühren
biologen
bun@@
cast
classes
demo@@
depending
dienen
diger
din
disorders
dramatically
dynamik
echtzeit
educated
ef@@
einfachheit
elephant
eres
erinnerungen
faced
fett
filmen
forming
funded
furniture
gesunde
haare
hai@@
herunter
hnt
identi@@
identifizieren
infiziert
interessanten
jenseits
judge
knapp
knee
latin
leonardo
mensch@@
mot@@
mumbai
mus
nets
organisiert
organize
painful
pc
permanent
pfen
pflege
photography
represented
rwanda
savings
scratch
secure
silence
sogenannte
spiritual
strategien
studiert
surrounded
teure
till
verein@@
vessels
viol@@
wander@@
whale
wolke
wundervolle
year-olds
yu@@
zoom
zufall
zunehmend
änderung
übung
.org
0
37
ain
aktuelle
allowing
app
architekt
astro@@
ater
atory
audi@@
ausrüstung
außergewöhnlich
b-@@
bab@@
besonderen
besucht
bewahren
bie@@
bility
blasen
boards
brü@@
cartoon
cell@@
conversations
disappeared
dish
disorder
drawn
drinking
drucken
dun@@
dunklen
dutzend
ered
erklärte
federal
figur
gebrauch
gendes
granted
gross
handys
hassen
herself
hide
hinblick
hiv-@@
immune
institut
investiert
iron
kalt
kamer@@
konflikte
konfrontiert
kontroll@@
kosten@@
köpfe
laugh
liest
long-@@
mehreren
mic
muslims
offered
parent
posi@@
positiven
präsentiert
relations
resi@@
risiko@@
samples
scary
schlechtes
se-@@
shock
sichtweise
sonder@@
spoken
spreading
stam@@
stamm
stille
streiten
stärken
syn@@
szene
teilung
tenden
tively
vergangenen
verschiedener
veröffentlichen
vietnam
wanting
wozu
wälder
z.
zeichnungen
zentrale
zugeben
zwischen@@
3-@@
abhängigkeit
abo@@
accessible
advertising
altern
anpassen
ans@@
anz
apparently
appeared
appears
astonishing
attacks
ay
behave
beitragen
bekannte
belohnung
berichtet
besuchte
campus
cha@@
chart
circa
colle@@
dependent
digung
disappear
ehre
ele@@
entered
fahrt
fas@@
floating
flüssigkeit
foie
fran@@
fremden
friendly
gemüse
gleichgewicht
headed
hur@@
ick
kreb@@
kultur@@
könne
leuchten
limb
limits
liver
länge
maße
muskeln
mutation
nervös
outcomes
pig
plätze
proje@@
providing
provo@@
psychological
reaching
reaktionen
repair
rush
sandwich
schlag@@
scho@@
seed
sende
sexy
sla@@
sports
spots
stan
suffer
sylvia
tax
teren
ther
tile
tly
traurig
umständen
uten
vely
verkehrs@@
visuellen
wartet
winkel
wü@@
ßt
é
-like
1999
98
afrikanische
alisieren
ame
angry
assume
atoren
beitrag
berechnungen
bot
britischen
bul@@
by-@@
chemi@@
chest
chocolate
chtes
commitment
corporate
curiosity
dating
defini@@
dem@@
den-@@
dene
destroyed
dignity
eigentliche
eit
embedded
emergency
emotionale
empfinden
ener
erdbeben
ergeben
eth@@
ethical
fiber
fordern
gandhi
gerettet
glück@@
gross@@
hardly
heaven
height
helium
ierten
ik
inspire
interessen
kasten
kni@@
kongo
krei@@
kreislauf
lewis
lig
locked
moder@@
motors
mung
muscles
og@@
ot
overall
overcome
poorest
punkten
rech@@
regel@@
reiche
ridiculous
riesiges
rising
russland
scans
schickte
schli@@
shooting
spannung
speakers
subje@@
symptome
tedtalk
tende
tered
tically
tied
tragedy
trucks
tumors
tunnel
umso
ures
verbrauch
vertrau@@
wetter
wider
winzigen
x-ray
zeichnete
zukünftigen
,@@
0.000
1994
50.000
adap@@
andererseits
ang
ao
asi@@
audio
aut
backwards
bes
bewirken
borders
boundaries
cash
chirurgen
chter@@
codes
collecting
connectome
continues
cricket
destroy
dete@@
dialog
dienstleistungen
diplo@@
diskutieren
diverse
dust
earthquake
effizient
eng
ens@@
ep
erfassen
exhibition
expansion
extent
feind
figuring
footage
fordert
frankreich
frozen
füße
gewöhnt
glaubten
guide
gän@@
harm
heilen
hlen
hoher
honey
increases
isierung
jet
june
kette
kir@@
ktoren
langweilig
lebensmittel@@
letting
logik
medien@@
memories
microscope
nah@@
nte
nten
oberen
papier@@
physische
pit@@
play@@
plays
poet
precisely
ration@@
recognition
recognized
repräsentiert
review
rice
santa
sat@@
saßen
season
sensi@@
shu@@
so-called
stahl
stirbt
stum@@
supp@@
taucht
teilnehmer
telephone
teri@@
terrorism
traditionelle
transparency
tures
versprechen
vorträge
wards
wings
wirklichen
zehn@@
zie@@
zig
zugleich
zurückkehren
zweifel
193@@
350
absor@@
achieved
adapt
affordable
alexander
alization
analysieren
animation
apartment
application
aro@@
ausdrücken
bekann@@
berlin
bewegungs@@
bicycle
black@@
block@@
blow
bom@@
breathing
brüder
c-@@
cer@@
chimpanzees
chti@@
clock
contra@@
council
demonstrate
der-@@
diagram
dollar-@@
dä@@
elefanten
erfinder
erfüllen
errichten
erwähnen
exakt
expertise
fasern
football
frequency
frequenz
fünf@@
geschmack
gestaltung
glob@@
globalisierung
globalization
handlung
handlungen
igkeit
inch
industries
ined
inst@@
insulin
intensive
interessanterweise
january
jenen
katastrophen
keyboard
konsumenten
kranken@@
kung
l.a.
logo
mail
mmer
monster
nachhaltige
neulich
official
onal
origin
pers
phy@@
popul@@
probability
properly
raising
reduction
reichtum
reli@@
reporter
sammlung
schaften
schnelle
schöner
sensor
sheep
speaker
steuer@@
stewart
stufen
succeed
tedtalks
tis
toilet
tries
tzu@@
uh
verließ
weibliche
wild@@
witness
yp@@
zentral@@
…
-up
academic
afterwards
airport
anruf
architectural
ases
attached
aufstieg
ax@@
benutzte
bevölkerungs@@
bly
bösen
cham@@
cia
co2-@@
contrast
determined
doppel@@
dü@@
electronics
endet
enemy
fiction
fixed
fließt
flog
foot@@
fres@@
gestartet
goo@@
governance
grandfather
gste
h-@@
hawaii
höheren
ignore
illu@@
ima@@
implan@@
intervention
involves
irgendwelche
kaputt
maintain
mation
mid@@
miert
naked
nete
nobel
offers
organismus
personality
pointed
pp
prototype
pushing
qui@@
recycling
regul@@
rob@@
robust
salt
schwe@@
schätzung
senior
sequenz
spenden
spur
stores
stämme
sub-@@
ten-@@
ticket
tigkeit
tting
umgang
umzu@@
un-@@
verbesserung
vorsichtig
vulnerability
wale
wein
worker
zit@@
zufriedenheit
zuzu@@
zählt
1998
3,@@
3d-@@
47
50-@@
abstra@@
addi@@
adding
altes
aner
apps
aspects
ausnahme
ausschließlich
balls
calculate
capitalism
cau@@
cker@@
colony
contribute
cour@@
deinem
denkweise
dia
dioxide
drew
drill
ebenen
elsewhere
enz@@
erlangen
erwartungen
finger@@
fluid
foods
footprint
forests
fuels
gedanken@@
geh@@
gene@@
gerufen
gewann
güter
hearts
historical
hn
höchste
impf@@
ingenieur
inklusive
insi@@
intelligente
katze
keinem
kel@@
kindes
konsum
kri@@
ktionen
kühl@@
liberal
magazin
mand@@
mcdonald
mechanismus
mieren
nam@@
nei@@
nerven
nick
oldest
opera
paradox
parti@@
persönlichkeit
photographer
polar@@
preis@@
privilege
provided
provides
rad@@
radio@@
rats
rechner
rö@@
scheitern
seats
shed
signed
smoke
spre@@
sprin@@
stamm@@
streit@@
terin
thrown
traveled
tu
tun@@
units
usw.
verrückte
vorwärts
weltbevölkerung
zurückgehen
,000
1950
34
80s
97
alisierten
anführer
arctic
ations@@
auftrag
autismus
autor@@
bahn@@
band@@
bemerkenswerte
breaks
chief
ck-@@
deu@@
dichter
dieren
dominant
drückt
einheiten
einrichtung
elite
englischen
entgegen@@
entstehung
erb@@
fascinated
faszinierende
figuren
fortunately
früheren
fügen
führ@@
geber
gebildet
gedächtnis
gelt
gert
hinunter
hir@@
hire
höhepunkt
ignorieren
includes
inhalte
intuitive
jeweils
knie
kongress
konzepte
kulturellen
lecture
lieder
mein@@
millimeter
mri
nachhaltigkeit
nationalen
nerven@@
nung
opens
ora
plenty
ral
rob
robotic
rum
secondly
sey
sicherer
sieb@@
silent
ski@@
sogenannten
soviet
ssi@@
stammen
stimulation
strecken
tags
theorien
tik
ttert
täuschung
underground
universitäten
uren
ursache
vin@@
väter
wahr@@
wahren
weltweite
währ@@
wärme
zuge@@
aliens
articles
atlanta
ausgegeben
beer
begriffen
benutze
bergen
blickwinkel
cartoons
clu@@
consequence
counter@@
craig
crying
ctor
darkness
deckt
denselben
describes
discuss
ersetzt
escape
extract
fabriken
fache
finds
flip
fur@@
fä@@
geo@@
ger-@@
geraten
geri@@
gewöhnlich
grippe
grundlegend
gst
harry
hea@@
high@@
hoben
holds
homosexu@@
ibm
imagined
integration
irgend@@
jewish
kap@@
klo@@
kuchen
künstliche
lac@@
landed
lens
likes
limit
macher
mammals
mary
morality
native
ney
orchestra
owned
ozean@@
path@@
phantom
pharma@@
pic@@
portraits
pper
practices
prefer
produces
pyramid
reflect
regelmäßig
rel@@
reparieren
ritual
schlei@@
sensoren
sheet
shopping
smallpox
spin
spra@@
staats@@
stag
stages
static
stop@@
strategies
strecke
suicide
symmetrie
technische
temp@@
thr@@
transfer
umstände
uni
uss
verschmutzung
verschwindet
vogel@@
watts
wiederholen
willkommen
winning
za
.000
00@@
0er
196@@
1980
4,000
accidents
aff@@
aku@@
ali
alls
amongst
angebot
angesichts
aries
ausgebildet
bedeckt
behörde
beijing
belt
benutzten
berühmt
bescheid
beschä@@
besitz
best@@
bol@@
bran@@
capita
chosen
chteten
conflicts
controlling
controls
cooperation
corn
dauer
dedicated
diesmal
dinosaur
dru@@
dungs@@
effekte
ehr@@
elections
emissionen
erungs@@
esen
festgestellt
flie@@
fließen
focusing
gelb
gemessen
gerung
gezwungen
glasses
glei@@
globally
han
hinauf
hinweise
hit@@
hl
hmen
här@@
improvement
inches
index
industrie@@
interactions
investition
januar
johnny
jugend
kalten
kanal
kas@@
klu@@
knopf
kohlenstoff@@
kommunikations@@
komplizierte
kreiert
köpfen
lehrern
lernten
license
lim@@
lord
löst
milo
mochte
musi@@
nachdenkt
neuroscience
nurses
od@@
oll@@
openness
ore@@
pace
passive
photographed
physischen
positions
praxis
primitive
profitieren
quer@@
ratten
reich@@
rely
repli@@
rescue
rocks
rou@@
ruanda
ruhig
schnell@@
searching
selb@@
separated
sozialer
sternen
summe
tanz@@
tempo
tempor@@
top-@@
tzten
unds
vable
vieler
wes@@
wiederholt
wohnen
writers
zucker@@
zukommen
0,000
130
20.000
2012
2020
2030
42
43
50@@
90s
abends
ace
aircraft
alan
alphabet
anbieten
angetrieben
ass@@
aufre@@
begrenzt
bend
benen
billig
cen@@
cheaper
chile
committed
communications
concern
currency
cute
doktor
echtes
efforts
empire
encounter
energien
enormen
entscheidende
erziehung
excuse
exposed
fabric
fathers
fruit
fts
ful@@
garbage
gather
gerü@@
gesunden
gon@@
hacker
hai
hanging
hop@@
hre
hun@@
häusern
ica
ingredients
ining
initial
innovations
irgendwas
jail
käfer
lego
leistungen
lichter
life-@@
losigkeit
loud
males
mapping
meditation
memes
mining
mmen
operations
parall@@
pot
precise
privaten
reef
removed
returned
rop@@
rosling
rum@@
schein
schlimm
schlimmste
schnitt@@
schwerer
schülern
sensors
sensory
shadow
shakespeare
sharp
sitz@@
speci@@
spectacular
spinal
spitzen
störung
teleskop
univers@@
vel@@
verbraucht
verschieden
vertical
videospiele
vital
volunteers
voran@@
wach@@
wk
wunderschönen
zeitungen
ärmsten
äuß@@
+
000-@@
1900
1990s
aktu@@
announced
antrieb
association
ath@@
aufrecht
ausmacht
außergewöhnliche
bedürfnis
berkeley
biologists
bir@@
brei@@
bäumen
cats
chemischen
chil@@
christian
chung
consume
contemporary
contract
diges
diver@@
ecosystems
eien
einziges
elegant
ent-@@
entwicklungsländer
erstaunlichen
ethiopia
evolve
excellent
f-@@
falle
fears
fotografie
freund@@
frie@@
frustration
fung
förder@@
gegenüber@@
geno@@
gewi@@
gewöhnliche
glich
grab@@
graphic
gy
harte
haut@@
hitze
impfstoff
inn@@
ire
jonathan
jung@@
jupiter
kab@@
kel
klassen@@
kleinere
kreativ
l-@@
laid
lawyers
letz@@
meister@@
memor@@
messer
mice
micro-@@
mische
motoren
nachrichten@@
nahezu
neighbor
neural
observation
ony
parties
pay@@
plot
policies
politisch
produkten
pump
qualities
real@@
reicher
reported
researcher
rover
sacred
sag
sarah
schafts@@
schulter
sechs@@
shirt
shots
sions@@
skraft
spiritu@@
standard@@
streifen
surfaces
säu@@
tas@@
tations
tedglobal
terrain
terrorismus
tired
tlichen
tribes
underlying
verbrauchen
verhaltens@@
verk@@
verletzungen
weltall
werdet
whit@@
wohlbefinden
zunehmen
-to-@@
2.000
abuse
albert
alice
alle@@
allgemein
ama@@
anfängt
angehen
ante
artige
atom
aussterben
bags
banjo
barely
belie@@
beliefs
beln
besitzer
bip
blö@@
carl
cle@@
colleague
conclude
contains
customers
daughters
depressed
dimensional
discoveries
dlichen
dress
drove
ego
einzigartig
emerge
erfüllt
erinnerte
eröffnet
europäischen
eve
explaining
expor@@
extended
fabulous
flash@@
format
formation
fotografiert
founded
frem@@
gathering
gebäudes
gegessen
grä@@
hal
hersteller
hinweis
hirn
hormone
i.@@
inger
interacting
invite
jagen
kapitalismus
kolonie
kombinieren
kommen@@
kopieren
korallen
ktiv
kuh
layers
loser
lü@@
ministerium
mixed
monterey
musicians
nes@@
neur@@
neutr@@
open-@@
peers
persi@@
pflanzen@@
phil@@
picking
ppen@@
prakti@@
profile
realm
revolution@@
rolling
schlimmsten
schwestern
sleeping
sozial
speicher
standpunkt
stones
storm
streit
swe@@
taschen
teenagers
teilte
thick
tion-@@
toilette
transparenz
tuna
unlikely
untersuchungen
westliche
wieviele
zent@@
zweites
zwingen
übertragung
abfall
administration
agricultural
amerikas
anony@@
aring
array
artistic
ausgehen
auswirkung
bangladesh
befreien
bewe@@
bier
bold
brenn@@
brustkrebs
bug
cave
ceo
circles
crack
d.
demon@@
detection
diagnosed
dom@@
emerged
engaging
entschuldigung
esses
facility
fit@@
futter
ga
gegenstand
gelangt
gentleman
geschützt
gipfel
glamorous
gleichheit
glückliche
graphi@@
gy@@
hard@@
herauszu@@
hh
hingehen
hinsichtlich
historic
host
informed
injury
integrated
internets
ipod
jh
kation
kg
klingen
knoten
ktes
kurse
marathon
menschlichkeit
methods
ners
nerve
nimm
no-@@
pants
parkinson
perceive
philip
plum@@
portion
probieren
prozesse
pulling
reagiert
receive
reduced
refer@@
reminded
reports
ridge
schaffte
schein@@
schlau
schreckliche
seeds
seek
seil
shifting
sierra
sierung
sing@@
sisters
smooth
sprecher
spä@@
stag@@
stir@@
subtle
surgeons
surprisingly
swa@@
syndrome
teilten
thailand
tip
transplant
treatments
tropfen
ugly
unterhalb
unterscheidet
ut
utili@@
vermittelt
verteilen
viral
volles
vorn
weiten
will@@
wissens
wodurch
wol@@
wundervoll
zusätzliche
190@@
194@@
96
allgemeine
ami
ansichten
armed
atem
ballon
ban
bele@@
bond
bord
buddha
cable
chirurg
chtung
classical
clever@@
climbing
cluster
coloni@@
comic
crossing
diagno@@
dumm
eingehen
entwurf
erledigt
expectancy
fabri@@
fahrrad
favor
fett@@
finanziert
flows
forgotten
frag@@
frog
geni@@
geräten
gesichts@@
gib
grace
gründer
hungry
iness
inmitten
inspiri@@
isch@@
jefferson
kreuz@@
ky@@
lebensqualität
lock
lungen
mati@@
mechan@@
miracle
missed
misst
mittelpunkt
nisse
occasionally
ohr
orchester
originally
papa
partei
pft
pigs
pointing
protecting
prototypen
raub@@
react
robotics
roman@@
run@@
sach@@
sales
schwarzes
seattle
sebastian
shrimp
sich@@
sicherstellen
silly
someday
soup
spiels
statistik
stau@@
stigen
subway
symboli@@
tages@@
tated
tigt
toes
tracks
trajectory
trieb
tät
ungsprozess
unsichtbar
ups
urban@@
verlangt
verse
vierten
views
vin
volks@@
vorkommen
warf
waschen
with@@
wundervollen
wünschen
würdest
yours
zukünftige
zurückkommen
ältesten
öffentlich
übersetzt
2-@@
31
38
abendessen
actors
agent
alisi@@
ama
analyze
anonymous
anreize
atem@@
bag@@
banks
barrel
bauer
becken
bedeutend
beg@@
beglei@@
beschreibung
besie@@
betreten
bienen@@
biop@@
bomben
boss
briefly
bruce
burg
buried
bären
cake
cap
ch-@@
chin@@
citizen
clients
cross-@@
curriculum
debt
delivered
dens
dive
dringen
durfte
entdeckten
experiment@@
failing
fernseher
gall@@
geblieben
geschlossen
großvater
hall@@
hauses
heran
hmm
ier@@
ill
insurance
julian
jährlich
kapit@@
kauft
kick
kiste
kolle@@
krab@@
labs
landete
lawyer
legten
ligen
liter
loc@@
luck
mannes
meal
mikroskop
minim@@
moment@@
märkten
nachhaltig
off@@
offenheit
ogra@@
optimism
optimismus
ordnen
ored
outer
pad
pel@@
pfei@@
polar
pose
predicted
predictions
proper
proportion
rarely
rebuild
religiöse
rent
resilience
resolution
richer
royal
ruft
sang
saudi
schafften
schieben
schlange
schreibe
selektion
shelf
simon
sputnik
stahl@@
suggesting
tap
tension
tent
tesla
the-@@
thus
tolles
tote
trainieren
unbelievable
upset
vorgestellt
websites
wilson
winds
wirtschaft@@
wissenschafts@@
wolfram
worthy
zeichnung
zusammenge@@
zusammenzu@@
überlebt
1995
1997
24@@
52
abteilung
academy
aden
ading
aims
aktuellen
amed
archi@@
archie
ately
atome
austausch
backs
bahnen
bandbreite
basierte
bats
befassen
behaupte
bern
betrieb
beträgt
bezieht
bou@@
buches
budgets
buil@@
captured
cations
characteristics
cheese
chron@@
coca-cola
coke
computation
cord
crops
cycles
danken
dear
diplomat
disch
dness
domain
domestic
dozens
dr
dramatisch
durchmesser
einzigartige
ek
entrepreneur
erei
erfuhr
erkunden
essed
essence
exam@@
expectations
external
fda
feld@@
finanzieren
fischer
fits
fragile
frucht@@
führenden
füßen
gefä@@
geh
gelaufen
genocide
gerissen
getestet
gewinnt
geöffnet
gged
graphics
güte
halben
hebt
heimat
herein
home@@
hypothese
ids
indiens
instructions
irgendein
isiert
iting
jellyfish
jerusalem
kapital@@
keith
klassische
komm@@
körpern
lehrerin
lese
linke
lücke
mar
massen
merely
meta@@
mischung
neugierig
neutral
nurse
onkel
opti@@
ord@@
packt
painted
pazifik
pet
pitch
pro-@@
profits
programming
propaganda
prozesses
quad@@
rechnung
refle@@
regret
respe@@
runter@@
scales
schienen
schwanz
scre@@
sendung
served
shit
sig@@
skeleton
skull
soziales
sub-saharan
suggested
summit
susan
suspect
ti
til@@
tiv@@
tragödie
une
ursprüngliche
virtuellen
waters
weapon
wildlife
wunderschön
wütend
youth
zuletzt
..
40@@
86
ack
ack@@
advis@@
ag
alb@@
alists
allgemein@@
ances
ationen
auffassung
aufregende
bart
bears
bedro@@
beginne
begun
beha@@
behandlungen
beinen
belong
bens
berühmten
blan@@
brooklyn
canopy
caring
cement
consciously
cosmic
criminal
defi@@
depth
deuten
dictionary
dolphin
dreimal
drum
ebay
einblick
einschließlich
elderly
elegan@@
elf
entering
erfindungen
erfordert
erledigen
expanding
extinction
fires
fortunate
free@@
freu@@
fting
gallery
gefängnis@@
gemeinschaft@@
genetics
gestaltet
gewissermaßen
gle@@
gotta
grateful
guns
handelte
harvest
heiraten
hilfsmittel
hitting
hle
hoffnungs@@
inse@@
insights
inv@@
irgendeiner
israeli@@
isten
ists
it-@@
jamie
jo
katzen
kelly
kills
komisch
komplexer
kooperation
kosovo
kro@@
ktion@@
law@@
leverage
liebt
lle
meere
meint
million@@
mines
neh@@
neun@@
niedri@@
nochmals
norm
objekten
october
ological
ologische
organis@@
pandemic
potent
pound
promote
pursue
quadrat
raff@@
redet
reserve
reveal
richter
rick
roh@@
scha@@
scham
sciences
scra@@
selbst-@@
senken
sh
skulptur
som@@
spu@@
staatlichen
stets
stig
strahlen
stroke
struggling
suchten
symbols
tes@@
theories
traditions
tren@@
unendlich
vacuum
verfügen
verliebt
verlor
verstän@@
wash
weltbank
whatsoever
wissens@@
änderte
ängste
überprüfen
überqueren
1980s
advance
airplanes
alities
allzu
amen
angepasst
angestellten
anzeige
anzugehen
anzuschauen
asse
atomic
attitude
attract
auseinander@@
ausführen
auszudrücken
aw@@
bedeuten@@
beobachtung
bewegte
biodiversity
biologist
blü@@
bound
brow@@
browser
bruch
chairs
ckten
collaborative
consistent
contain
crucial
dankbar
defe@@
definitiv
dende
dies@@
diving
doktor@@
draussen
echter
einstellen
einwohner
eness
entgegen
erfand
erst@@
erzielen
euer
evolution@@
february
festival
flag
flaschen
freuen
fru@@
gangs
gerin
gerüst
gesetz@@
gesundheitssystem
goliath
greif@@
heil@@
hem@@
hills
hypothesis
immun@@
impor@@
ination
instant
interviewer
investig@@
irgend
isolation
italy
kannten
key@@
klettern
ktiven
leit@@
lic
lieb@@
läu@@
mainstream
matische
mayor
measures
mechanisms
mist
muskel@@
nd
netzwerken
oktober
ome
optimistisch
plastics
prepare
produktivität
programmiert
puzzles
pyramide
quer
redu@@
rela@@
religiösen
reminds
repeat
restore
revenue
richtet
schle@@
schrei@@
scores
seide
seln
sentences
sign@@
silver
stiegen
stin@@
städtischen
tables
tafel
tain
teilnehmen
tent@@
tiles
tode
transport@@
tränen
tur
universities
unterhalten
vent@@
verarbeiten
verarbeitung
verdammt
verhindert
verurteilt
vielzahl
wandern
weibchen
werken
wirbel@@
zentimeter
2015
3.000
30,000
4,@@
50s
a.@@
abel
aktiven
algorithm
algorithmus
angeschaut
anhalten
anhänger
anstellen
auftreten
aufzeichnungen
autoren
bach
bangalore
bedroht
bee@@
behörden
berühmte
besonderes
bewer@@
blame
boom@@
bowl
brad
brain@@
brau@@
brüche
bürgermeister
canyon
columbia
cont@@
cotton
cousins
covering
damn
description
deserve
diktat@@
dire@@
dns
document
dopamine
dropping
dustrie
earn
egg
ella
emails
empathie
erfol@@
erforschung
erschien
experimental
fantastischen
februar
fehler@@
fels
flowing
fremde
furcht@@
geburts@@
gelder
gelehrt
gelände
geschü@@
glad
grades
halt@@
haw@@
heart@@
hindurch
hlt
hte
huh
hunt
imagery
imaging
immediate
impacts
industriellen
juni
kil@@
kilo
kohle@@
kram
kredit@@
königin
labor@@
langwei@@
marken@@
minimum
mon
moralisch
mushroom
mysteri@@
mächtige
owner
paralyzed
partly
pati@@
penguin
perfekten
phenomena
pipeline
poesie
preserve
proposed
prostate
pushed
rab@@
rachel
reale
realizing
reliable
replicate
republic
resistant
rettung
rings
rt
russian
röntgen@@
sab@@
scheibe
schnee
sely
skala
skali@@
sorgt
span@@
spielten
stops
strangers
stry
stän@@
successfully
tears
threw
toy
turkey
ungeheuer
ungleichheit
vereinten
vermute
verzweiflung
was@@
weh
werkzeugen
widerspruch
winzige
woods
zel@@
zentr@@
zentralen
zeu@@
zwanzig
änder
öfter
übergang
übt
15-@@
1996
25@@
abenteuer
accepted
adi@@
adopted
album
ameise
anders@@
anerkennung
answered
anzug
ausgabe
ausgewählt
bam@@
beschei@@
beziehen
bi
blau@@
blick@@
boo@@
ce-@@
chor
colored
conf@@
connects
consul@@
continuing
cus
defen@@
dere
devil
dicht
discipline
discovering
dreh@@
durchschnitt@@
einfluss@@
einführung
eingeschlossen
eless
eling
emotionalen
enes
ensure
erhielten
essen@@
ethanol
extend
fassen
feu@@
forum
francis
gedreht
genaue
genetisch
getragen
gradually
grandchildren
haar
heutige
high-tech
holt
holy
horizon
improving
initially
instantly
int
involviert
iss
italien
jon@@
kennedy
kin
kindersterblichkeit
kolonien
konstruktion
kreise
kter
langes
lations
leeren
liert
lobby
lou@@
louis
lächerlich
manipulation
mier@@
mir@@
mithilfe
namibia
nathan
neuesten
panels
part@@
passage
platte
platten
posing
projekts
rapid
raumes
retina
rope
sauerstoff@@
schaf@@
schickten
schmerz@@
schreibtisch
sheets
shelter
shine
sits
sixth
smarter
spli@@
stabilität
stattfindet
staying
steam
straf@@
strafe
strasse
supported
technisch
tendency
tical
tissues
titel@@
translation
tribe
träger
täglichen
umher@@
uncle
uncomfortable
unfair
ungs-@@
ungspro@@
verringern
vitamin
vortrags
washing
watson
weinen
weitermachen
wut
zeugs
zielen
zipcar
zur@@
‹
›
-and-@@
1970s
1984
aber@@
affects
alaska
alternativen
and-@@
anda
apollo
asteroiden
aufmerksam
bb@@
bedienen
belast@@
besides
bewerten
bewirkt
billi@@
book@@
bottles
bow@@
brett
cab@@
capability
channels
clear@@
compli@@
crew
dal
dave
dawn
deaf
demokratischen
detailed
dienst@@
dio@@
drivers
durchzuführen
dvd
einkommens@@
ele
elizabeth
ena
ener@@
energieverbrauch
eröffnen
euro
expecting
exponential
facilities
fibers
flut
fraction
freundlich
gang@@
geheimnisse
generating
geometry
geredet
gering@@
gesucht
gewinn@@
gonna
gordon
got@@
gradu@@
greift
großartiges
hear@@
hell@@
hm
hm@@
homework
iling
impression
indische
individuelle
individuum
industrielle
inevitable
kenn@@
kindergarten
kohlendioxid
konta@@
konzep@@
kopie
kreaturen
krie@@
käme
lers
lust
mangel@@
matt
maus@@
mel
mentor
mern
metall
metall@@
methane
mittagessen
mobil@@
mount
mustern
nac@@
nachfrage
nahme
nano@@
negativ
ny@@
odds
offenbar
passenger
passi@@
permission
plug
powerpoint
produ@@
präsentieren
reiste
rhythmus
ries
schie@@
schlaf
schriftsteller
schwerkraft
schwierigen
schätze
schütteln
serving
signature
six-@@
slavery
sphäre
staub
strahl@@
stür@@
sudan
sus@@
synchron@@
tauschen
terribly
tisch@@
translated
transplan@@
trash
trei@@
tubes
tum@@
tune
tätigkeit
ue
unding
ungsp@@
verdoppelt
vieren
visited
voraussagen
werk@@
wers
wheelchair
wie@@
wollt
worms
wuchsen
yor@@
zeichnet
zukunfts@@
überwachen
125
2.0
abilities
acted
acy
alltag
alters@@
amt
antarctica
antly
anzeichen
armstrong
att@@
aufgeben
automobile
bedauern
berechnet
berechnung
beschränkt
betracht
bewusstseins
billiger
bombe
briefe
bubbles
bucks
builds
bulb
cape
charges
clothing
clubs
comparison
conducted
conservative
cows
darzustellen
demographic
dest@@
dialogue
dienste
district
dn@@
doors
durcheinander
effe@@
eingestellt
einzusetzen
elected
elementary
elled
enables
etc.
experiencing
experte
extension
fang
fantasie
fastest
felsen
flughafen
fotografieren
founder
frühling
förderung
führungs@@
gefolgt
gegenstände
gehalt
gehend
gehör
gele@@
gen-@@
genetically
genom@@
glu@@
goldene
haar@@
hawking
herkunft
herrscht
hindernisse
hunderten
hybri@@
hölle
ik@@
impulse
ins@@
insect
isst
julia
kan
ktor
künstlerin
lagern
lama
leaf
linge
llen
lärm
mac
magnet
mathematische
mauer
maximum
maßen
merkmale
migr@@
min
mitt@@
mobili@@
motto
musician
neat
neil
nern
netze
nike
nordamerika
oberflächen
ok@@
oliver
oms
oned
oo@@
oth@@
philosopher
phoenix
pockets
port
pretend
programmierer
psychologen
rechen@@
reducing
redwood
refer
reichweite
remembered
rep@@
representation
restri@@
rezept
schenken
schlaf@@
schnei@@
schrecklichen
schwei@@
segment
shoots
sonnensystem
spei@@
spin@@
stab@@
stability
stack
stad@@
steigern
stete
suppe
tanzania
tendenz
teu@@
thir@@
thri@@
tone
trains
töchter
türkei
umsetzen
ungewöhnlich
unglücklicherweise
untere
ushahidi
verbrennen
vertrag
visi@@
wachsende
warning
warren
wheat
widmen
wissenschaftlich
zulassen
zung
zusehen
1945
195@@
30@@
76
accounts
agencies
alt@@
ankommt
arrive
ata
attractive
bad@@
banker
barry
bereiten
berry
beruf@@
bestes
beten
betonen
betra@@
bett@@
bindung
boats
breakfast
bringe
camps
carpet
chirurgie
cir@@
completed
ctors
cuts
database
december
demo
dezember
disney
dist@@
dp
ecological
edges
edinburgh
effizienter
ehemann
einziger
elektronik
elephants
emily
entropy
equ@@
erbe
erkenntnisse
established
eted
fancy
fans
finanziellen
flat@@
fokussieren
folgte
formt
frustrated
fuhren
gained
gelähmt
gemäß
gener
gent@@
geschäft@@
gestiegen
gewalt@@
gh
gorgeous
gram@@
großartiger
großeltern
gucken
gur@@
heli@@
hinaus@@
hinweisen
holte
hook
hotels
identified
indus
inf@@
infe@@
infection
informa@@
inging
inventor
investing
kandidaten
kante
kapazität
kehr@@
kibera
kins
klimawandels
kommenden
korrekt
label
leber
located
luckily
luther
ma-@@
marken
mechanismen
mende
miserable
montana
museums
muslime
natasha
nerves
nowadays
objective
obser@@
oel
ologischen
os@@
ownership
park@@
polizei@@
pollin@@
power@@
prüfen
pumpen
remained
remaining
ross
rä@@
räder
sac@@
scanning
schauspieler
schmutz@@
schädel
seas
server
sinken
sj
skelett
smoking
speichern
startete
statue
strike
strings
stunts
ständige
suck
sunday
tail@@
taschen@@
technologische
tends
terroristen
thei@@
tho@@
thro@@
tiker
tokyo
tollen
toys
tragic
treppe
ty-@@
tötet
ubiquitous
umgebungen
umzusetzen
uncertainty
unfälle
urknall
verb
verkauf
verkaufte
verletz@@
verrückten
verstecken
visions
wachstums
well@@
wertvoll
wette
wheels
whi@@
wohnungen
währung
wörtlich
wüssten
yves
zir@@
ärzten
überlebens@@
überzeugung
4.@@
6,000
aero@@
alarm
alisierte
altitude
ane
annahmen
anspruchs@@
antarktis
anwälte
appearance
arch@@
are@@
assumptions
asthma
atu@@
aufeinander
ausprobieren
aussah
ausschnitt
auswählen
balken
barrier
bed@@
beeindruckend
begleitet
behauptet
behälter
belieb@@
beliebt
beschleunigen
besuch
blank
blogger
bmw
bow
breite
bren@@
britische
broad
burden
ceiling
cen
chee@@
chtern
command
comment
commons
confident
convert
coole
dalai
das@@
deception
deck
demands
dick@@
differenti@@
direktor
diskussionen
documents
dop@@
download
dutch
elev@@
emergence
endangered
endste
engineered
entropie
entwicklungen
erectus
erwähnte
ery
erzählten
erzählung
eye@@
fachen
fertig@@
ffel
finan@@
finanzielle
firm
first-@@
formel
fotograf
fähi@@
gaps
gases
gation
geflogen
geheim@@
gelegenheiten
genie
geometrie
geschnitten
gewaltige
gewöhnlichen
gil@@
git@@
gles
grandparents
gut@@
harmony
hierbei
hunting
hydr@@
händler
hör
hügel
id@@
included
inequality
innocent
interior
interven@@
inti@@
isolated
jedesmal
jur@@
kauf@@
keln
ketten
kis@@
kluft
knochen@@
kognitive
kombiniert
konsumieren
kts
lappen
laughing
leap
leere
loves
lun@@
market@@
matischen
mauern
max
mere
michigan
minen
mitteilen
mom@@
moma
monat@@
mäßig
nant
narrow
navi@@
neck
needle
neugier
our@@
over-@@
panel
persu@@
phosphorus
physician
pittsburgh
planes
pled
presents
printer
prisoners
professionals
profoundly
promised
protest
prü@@
quit
rap@@
ratio
recover
reißen
relev@@
reser@@
rhythm
sammelt
schokolade
schulden
sensation
senti@@
setze
shocking
skulpturen
sno@@
spain
spezifische
stab
stör@@
substance
supplies
supporting
sustain
tattoo
techniker
tia
tos
trainiert
ungssystem
unhappy
uniform
unterbrochen
venture
verbreitete
versions
verwandten
veränder@@
vielmals
virgin
voting
waffen@@
wealthy
wooden
zelt
zwölf
züchten
ör@@
überraschende
1989
1991
200-@@
5-@@
80@@
adoption
aggressive
agu@@
alizing
alters
ampli@@
analogy
andro@@
ands
angelegenheit
anpassung
anweisungen
approaching
aquarium
arguing
atur
auftauchen
banking
beizubringen
beri@@
bewahr@@
bewohn@@
brücken
bs@@
bulbs
büros
cer
chim@@
chinas
chtete
closing
coach
compassionate
compelling
cousin
darm
day@@
dec@@
delivery
demokratische
denkst
diana
distances
dressed
drinnen
drüber
e.
earliest
eds
ehren
einnahmen
elli@@
entschlossen
erend
erfahr@@
erfasst
erstaunt
es-@@
esse
essing
estimated
eting
exception
factories
fairness
fate
finanzierung
frauen@@
fuer
fäden
gathered
gecko
gefährliche
gelang
gelbe
geschlecht
gewiesen
gewinne
ghts
gieren
graham
greek
gänge
hammer
hed
heiligen
herein@@
herrschaft
herstellt
hes
horizont
häu@@
incentive
intelligenten
ji@@
jihad
joel
journalisten
jumped
kansas
kerin
krea@@
kriti@@
kt@@
landes@@
liberia
liegenden
logisch
marker
massachusetts
mck@@
mers
mix@@
mond@@
morph@@
moses
mr@@
mysterious
neocortex
normales
notwendigkeit
nuts
nutzten
obstacles
offices
oli@@
omen
oning
origins
ozeans
performed
pflege@@
plankton
planung
pleasant
plu@@
poin@@
poses
precious
prevention
primarily
privacy
prophe@@
q
radikal
rakete
reihenfolge
renaissance
räum@@
sale
schten
schweine
seiden@@
sendet
sieben@@
sierte
sitze
slum
smallest
spanish
spec@@
sprech@@
stel
stie@@
städ@@
ständen
sydney
tackle
team@@
tedmed
tem@@
tering
termin@@
threats
transformative
trocken@@
umgekehrt
unabhängige
unrecht
ursprünglichen
vas@@
vat@@
vaters
vegetables
venezuela
venti@@
veranstaltung
verdi@@
verhält
verletzlichkeit
verletzt
verschwendung
walker
wasch@@
weist
weit@@
wellen@@
wett@@
wortes
yn@@
zieh@@
zivili@@
zueinander
zwan@@
zweiter
überlassen
1,5
1.
180
4-@@
adapted
aktive
aktiviert
anfingen
ani
anliegen
annual
anzunehmen
assemble
atomenergie
attra@@
audiences
aufwand
autonomous
award
bedeutungs@@
beneath
beschützen
bet@@
beu@@
blog@@
branch
cameron
cancers
carnegie
chat@@
chem@@
circuits
cliff
collapsed
confused
connectivity
construct
constructed
continents
contrary
couch
counting
cratic
cus@@
delta
deutet
dic@@
disziplin
doc@@
durchschnittlich
ecology
eigentlichen
elektronische
englische
enter@@
erreichte
ett
exc@@
ffer
flash
forschungen
freely
fungi
fühlten
gangs@@
geformt
gefü@@
gelingt
gering
gesetzen
gewinner
gewä@@
gging
gie@@
globaler
glue
gps-@@
graphy
griffen
gui@@
hamburger
headlines
heits@@
helpful
hilfreich
homeless
horror
ignor@@
imp@@
independence
infections
interpre@@
invested
itäten
ivan
j.
jackson
jar@@
judgment
kategorien
ket@@
kiribati
klar@@
klinische
klug
knife
kol@@
komplette
konstruk@@
konzentration
koordin@@
kreisen
kru@@
kum@@
kurzer
kühe
leather
lege
leihen
leitet
leitungen
lett
loaded
läch@@
magical
mais
marki@@
mates
mathematicians
meile
menschlich
mentally
namely
natürlicher
neighborhoods
norman
observe
occurs
onstage
or-@@
oring
oten
ox@@
participants
peri@@
petro@@
physicists
pie
plain
pocken
portugal
poten@@
predictable
pride
pris@@
privileg
procedure
proposition
reactor
reasonable
red@@
reefs
rehabilitation
repräsentieren
rivers
robo@@
roy
rüber
satelliten
schuldig
scri@@
seal
sicherzustellen
similarly
simpler
simultaneously
sm
sni@@
solarenergie
span
spare
steinen
storage
studien@@
sty@@
stö@@
stün@@
swi@@
symbole
säule
tamiflu
terrorists
tert
threshold
throwing
tig@@
traits
transi@@
treasure
treib@@
trin@@
täuschen
uk
und-@@
unglaubliches
unmittelbar
unwahrscheinlich
v.
vaccin@@
variable
verste@@
vertre@@
viertel@@
virtuelle
wachstums@@
warte
wea@@
widely
widerstand
wires
yards
ye
zutiefst
ökonomie
ökonomischen
überzeu@@
ün@@
140
17.
64
80ern
abgeschlossen
abstand
achievement
activist
additional
adventure
alistic
alli@@
analogie
angeboten
antibiotics
arabic
arbeitsplätze
ari
assi@@
assumption
aufzunehmen
baby@@
bakterium
bath
bble
beendet
belastung
berichte
besserer
beteiligen
betr@@
bia
big@@
bige
bildschir@@
biosphere
bled
blieben
blogging
blume
bombs
bono
branches
briga@@
brille
brilli@@
brush
capabilities
chens
chur@@
civilizations
client
colonies
commit
concert
cooper
crowd@@
customer
d.c.
ddle
deals
defining
delicious
deln
denden
despair
diagnostiziert
dial
dol@@
dos
downtown
dul@@
dörfer
eaten
ecken
einnehmen
electron
elektroden
engines
entsprechend
erweitert
eti@@
evan
expressions
farming
farms
feldern
fg
fleisch@@
folds
fossilen
fought
freiwilligen
frontal
full-@@
gereist
gestalt
grant
grasp
grau@@
grave
großem
größeres
guardian
guinea
handed
harbor
healthier
hired
hlte
häufiger
höhle
icon
identifi@@
illustrate
inder
influenced
inge
ingenieur@@
investoren
islamischen
jenem
jer@@
jill
kas
khan
kim
klappt
klassischen
kleineren
kolum@@
komplexes
kore@@
ladung
landschaften
leer
lichts
limitations
lokal
lowest
lungs
löwen
mathematician
microbial
mie@@
mmt
muskel
nairobi
nervenzellen
niedrig
nirgendwo
nutrients
offering
oper
ordnet
package
packed
pairs
partnership
pau@@
pennsylvania
ph.d.
philadelphia
planetary
princeton
prior
profession@@
programmier@@
proven
publishing
purposes
rain@@
rainforest
relief
sb
schlage
selfish
sicheren
simul@@
skeletal
spannend
spen@@
spray
sri
stattfinden
stens
stig@@
still@@
strands
strongly
suffered
supermarkt
syste@@
tch@@
teils
teppich
teszler
thes@@
tibet
tliche
tolerance
topo@@
transforming
treff@@
trie@@
unklar
unternehmer@@
urge
verbin@@
verdoppeln
verletzung
vermis@@
verraten
versetzen
verzweifelt
vielerlei
wahrschein@@
wasserstoff
wechselt
wettbewer@@
wetter@@
wichtigkeit
wohnung
woke
yl@@
zehen
°
á@@
12-@@
1970
20s
30.000
abhängt
abschnitt
alig@@
angekommen
ankommen
appar@@
approved
arz@@
attitudes
atur@@
atz
auflösung
aufstellen
auslö@@
ausreichend
ausser@@
autorität
ay@@
basieren
beating
begab@@
beizu@@
beleuchtung
believes
berühm@@
bestandteil
bestäu@@
bildungssystem
bislang
blown
boden@@
bohr@@
boy@@
bridges
brief@@
cellular
celsius
cholera
cian
classrooms
clon@@
closest
communic@@
coo@@
corporation
correctly
creator
deci@@
dele@@
delfine
destiny
detroit
diameter
disabled
divi@@
dough
draht
drän@@
durchs
dutzende
eight-@@
eingebaut
empowered
enceladus
ented
entfernten
erlaubnis
ernähr@@
erstaun@@
ethnic
europäische
explored
extrem@@
fat@@
favor@@
fettleibigkeit
fließ@@
flogen
foundations
freue
frühe
gear
generous
geor@@
gerecht
gesellschaftlichen
gestal@@
gesteuert
gewachsen
gkeiten
gravitation
halbes
halfen
healing
herangehensweise
hoff@@
human-@@
hyper-@@
höchst
ili@@
ille
immense
improved
improvisation
individuellen
infektionen
ington
inje@@
insu@@
integrate
integriert
intriguing
ipad
ira@@
jan
keits@@
keys
kilometern
klassi@@
klei@@
krankheits@@
kreis@@
kriegt
kräf@@
lampe
lebensraum
lektionen
leone
lern
leu@@
line@@
lists
logical
lot@@
main@@
mam@@
marketplace
marrow
marschi@@
masters
matik
meanwhile
medikamenten
melt
mies
migration
mor
mud
musli@@
myth
nachmittag
nadel
natürliches
nette
nien
nigerian
normal@@
occurring
ols
opfern
passes
personalized
philanthropy
pills
previously
primi@@
prin@@
prof@@
propose
prozent@@
punk@@
pus
pä@@
qatar
quot@@
rand@@
realistic
regard
reiß@@
renewable
republik
republikaner
retirement
riesiger
ro
rut@@
schuf
schäden
scope
secrets
seins
shocked
significantly
sink
smartphone
soldier
spanien
spannen@@
spill
steal
strip
stä@@
stück@@
substanz
sue
swiss
säulen
süchtig
süß@@
targets
technically
teenage
terrifying
texte
thers
threatened
thy
tized
toleranz
traditionen
transportieren
treibstoff
troops
trä@@
trü@@
ttern
tured
täten
unable
unprecedented
unsichtbaren
unterrichtet
ur-@@
utes
verbraucher
vergleich@@
veri@@
vern@@
versorgt
verwaltung
verwirklichen
vessel
visualization
vorder@@
wachsenden
wesentliche
wiegt
wildnis
wirtschaftswachstum
wörterbuch
yale
yield
yourselves
zers
zoomen
zudem
zugehen
zugän@@
zustimmen
öffnete
0ern
18.
1968
44
450
60@@
7.@@
abschließen
adver@@
affecting
after@@
aked
ald
aming
angesicht
antibiotika
anxiety
arizona
aters
ausgedrückt
authorities
bak@@
bela@@
believing
benannt
berufs@@
berührung
bewältigen
biologisch
biosphäre
bite
blicke
blinde
blue@@
boot@@
breeding
bundes@@
burned
burst
bzw.
calories
categories
category
choir
choosing
chop
ckers
compete
competitive
construc@@
controller
cool@@
corporations
denial
dependence
difficulty
digit
distinct
dominated
dschihad
durchbruch
dylan
dörfern
ee
einerseits
electrodes
electrons
ements
enabled
endete
ental
erlernen
erneu@@
ernten
errors
erschafft
et-@@
ethik
eurer
ex-@@
experimentieren
extraordinarily
fakt
festhalten
file
flach
flucht
fluores@@
flüssi@@
forgot
formula
foster
four@@
fox
früchte
fär@@
gebunden
geeignet
gefühlen
generell
gere@@
gerichtet
geschle@@
gewaltigen
glaub@@
gods
größenordnung
guarantee
gä@@
gött@@
halluzinationen
handels@@
heilige
heiße
hilfs@@
inne@@
insane
interviewed
investors
iq
irrational
israeli
jac@@
jenes
juan
kalorien
kanischen
kidney
klinischen
koch@@
komponente
konstruieren
krankenhäuser
kurzes
landet
leds
lehrt
leitung
lessly
liefen
lingen
literacy
löschen
magnificent
mai
mari@@
mating
mechanics
meinungen
mente
merkt
mio.
mitgebracht
mosquito
motivated
motivieren
nahe@@
navigate
negativen
newspapers
nick@@
niemandem
näch@@
olo@@
ome@@
organ@@
outs
pandemie
physikalischen
pick@@
picks
premierminister
problem@@
produktions@@
prosthetic
quanten@@
radikale
radius
rauch
read@@
recipe
redner
reflection
replaced
restlichen
riecht
roboter@@
rod
rollstuhl
runde
runden
rus@@
rückwärts
scenario
scenes
schlagzeilen
schließ@@
schloss
schläge
schuss
schwan@@
schweren
schöpf@@
seeking
sele@@
shei@@
shortly
sible
sichti@@
simu@@
sion@@
smiling
socially
spacecraft
spielzeug
stepped
sth@@
stimm@@
stol@@
straightforward
stretch
sym@@
symmetr@@
tasman@@
tatsächliche
telescopes
temple
terri@@
than@@
theoretical
tik@@
tioned
tongue
toronto
trace
transmission
trick@@
trugen
tual
two-thirds
töne
tür@@
u-bahn
unbekannte
unsicherheit
unterwasser@@
vation
verblüffend
vergleicht
verknüpft
verläuft
verschieben
verständlich
vice
wahrscheinlicher
walmart
wells
wick@@
williams
worfen
z-@@
ziehe
zones
zug@@
zun@@
zurzeit
zweieinhalb
äthiopien
ökosysteme
1993
59
60ern
actively
afgh@@
afrikan@@
agieren
akte
alog@@
angestellte
anzuwenden
apartments
applying
approaches
arab@@
arily
ased
atheist
attac@@
authentic
av
babbage
badly
beeindruckt
befand
bertie
beschäftigte
beton
bewaff@@
bie
bombar@@
boote
box@@
bunker
challenged
charged
chase
civili@@
clips
clue
coat
coin
communicating
competing
concentrated
confront
contribution
daneben
darwin@@
dation
decrease
dev@@
division
dlicher
dosis
drag
drängt
durchlaufen
dys@@
eben@@
educate
einig
einzig
einzigartigen
elling
encouraging
encyclopedia
equality
erkenn@@
erkrankung
erlaubte
erneuerbare
eventuell
evolving
exponenti@@
exposure
forma@@
formu@@
fortschritt@@
freiwillige
fried@@
fundament@@
galapagos
ganz@@
gated
gelben
gelegentlich
genannten
generieren
geschossen
gle
goodbye
gravi@@
gyrus
hardest
harm@@
haushalt
heilung
helicopter
hero@@
hierfür
historically
ho
holi@@
hütte
ideo
impressive
indians
institutional
intensity
intention
italian
jason
joy@@
jugendlichen
july
junk
karten@@
keines
klavier
kliniken
künstlern
lager@@
lagos
lic@@
locations
locken
lottery
lux@@
mage
masses
metaphern
missions
mitleid
modifi@@
modul@@
motiv@@
motiviert
mp
nahrungsmittel
nearby
neurolog@@
nonprofit
ongoing
oper@@
ous@@
parliament
parteien
participation
patent@@
patho@@
pflanzt
philosophen
pill
plates
pling
polizisten
praktische
prediction
profession
programmen
proposal
pursuit
raketen
reactions
recession
redete
reis
renewables
resul@@
rückseite
sank
sars
schachtel
schleife
schreck@@
schreien
schwein@@
schwimmt
schöpfung
sections
selves
sensing
sexuelle
sinkt
sinnes@@
skep@@
sonde
spezial@@
spieler@@
spruch
squid
starbucks
stieß
surrounding
tatsächlichen
teaches
tear
teen
text@@
thi@@
tide
timing
tivi@@
torture
truths
typische
typischen
ular
unglücklich
unsichtbare
vergrößern
verleihen
versehen
verwandt
vorbild
wal
willi@@
wirtschaftlich
woanders
wra@@
wri@@
wur@@
wörtern
wüsste
you@@
zettel
zierung
zivilisationen
zustellen
110
200,000
4.000
6.000
7,@@
70ern
900
90ern
94
absichten
acid
aktivieren
akzeptiert
alcohol
amerikan@@
ander
anderswo
ansonsten
anwalt
arbeitsplatz
arrested
assen
astrolab@@
aufstehen
auftritt
auslösen
backyard
banken
bauch
bc
beethoven
beispielen
bemühungen
benötigte
bereitet
beschleunigt
betrachtung
beutel@@
bewiesen
bezahl@@
bigen
blinden
blä@@
brasili@@
break@@
breit
bst
but@@
caltech
camel
captain
cassini
census
chamber
chances
chromosome
chts
civic
compromise
conser@@
controversial
costa
courses
crows
curves
cylinder
dallas
dden
dding
deck@@
decor@@
demokraten
desktop
dic
die@@
diskutiert
drawings
dringend
dynam@@
dür@@
e-mails
eigentum
ein-@@
einführen
eisen@@
elektronen
ency
endsten
enjoying
enkel
epo@@
ergebnissen
erhe@@
ermutigen
experimenten
faltet
fasst
fix@@
folded
folding
follows
frau@@
friday
fügt
gehst
gelen@@
genau@@
genehmi@@
genetik
genomes
geogra@@
geplant
geringer
geschä@@
gewohnheiten
gige
gletscher
glimpse
graus@@
grippe@@
grösse
gründeten
gün@@
halfway
heating
hektar
herausstellt
herbst
hiding
historischen
hob
honestly
horizontal
horses
household
hypothe@@
idiot
ignored
ignoriert
infi@@
intensiv
intent
interpretieren
introver@@
ints
invasive
investi@@
investments
ireland
irri@@
kapu@@
karen
katrina
kau@@
kind@@
kindness
kino
klare
konzentrierte
kortex
krankenhäusern
kritische
krähen
ks@@
kunde
körperliche
lab@@
lakota
leinwand
licherweise
liebsten
life@@
litt
lunge
m.
marry
mas
medicines
merkmal
mikroskop@@
mili@@
mind@@
minority
mobility
mythos
männ@@
männliche
möchtest
nee@@
nes
ni
nütz@@
of-@@
officer
ograph@@
open@@
panik
passte
penis
pier@@
ple
ples
politischer
positionen
potenti@@
predators
preparing
primaten
präzise
psychologist
psychologists
que@@
radically
ram
reagan
regardless
regenwald
remarkably
renn@@
responses
reveals
rupt
safer
schalter
schlüsse
schnellen
schro@@
schwamm
schwung
selected
sett@@
six@@
sized
sna@@
sop@@
speaks
spezifischen
spreads
staatliche
stammes@@
steh@@
steuert
storytelling
streams
structural
stung
sturm
stände
suits
symphony
systematically
süß
tanks
tauch@@
tempest
texting
tionally
transportiert
treu
trigger
truppen
typisch
ultra-@@
ungewöhnliche
ungsweise
unt
verab@@
verantwortungs@@
verboten
versagt
verwendeten
veröffentlichte
victim
volunteer
vorlesen
vorschlagen
voted
wachte
wag@@
wage
wartete
winter@@
worrying
wunderbares
würdig
zehntausende
zimmer@@
zoo
zuzuhören
zö@@
ökonomische
übers
1950s
1973
2.
8-@@
absurd
adjust
admi@@
advoc@@
agen@@
agnes
algen
amazed
andy
angewandt
anna
anre@@
anreiz
assignment
auszusehen
außergewöhnlichen
bali
ball-@@
barack
batteries
beam
beantwortet
bedeutende
beseitigen
bl
blood@@
blowing
bored
boundary
butter@@
calculations
calculus
calm
cation
charaktere
chin
claims
com
continuous
contributed
dacht
dankeschön
demokra@@
dence
detektor
deutschen
dian
diplomacy
distanz
distra@@
dj
doug
drops
duck
dum@@
effektiver
eineinhalb
einstellungen
elen
eliminate
elu@@
en.
enemies
equations
erfolgreiche
erre@@
erwä@@
filtern
finanzi@@
flossen
forschern
förmige
führe
gan
gefühlt
gegner
geistes
gend@@
gent
gescho@@
gewohnt
ght-@@
gig
gleichungen
halten@@
hand-@@
harmon@@
heal@@
hemisphere
heritage
historische
hundert@@
höhlen
inhi@@
integri@@
interpret
isierte
italien@@
jeans
jersey
joint
jugend@@
kabel@@
keller
kepler
klaren
kleinste
kletter@@
kriminalität
kräften
landscapes
large-scale
lauter
lear@@
legislation
leise
levi@@
liegende
lined
linse
linux
listened
loads
lows
luxury
mad@@
manipulate
manual
mathematischen
measurements
menschenrechte
monitoring
mozart
murray
mushrooms
mün@@
nano-@@
narratives
nepal
nitrogen
nungen
nungs@@
off-@@
olympischen
opo@@
ops
organi@@
organizing
overhead
pakistan@@
paste
peoples
pert
pes
physisch
pille
pin
poison
positives
posted
printed
pros@@
prüfung
publish
quadrat@@
rande
rauchen
reserves
rest@@
restor@@
riechen
road@@
rs
rubber
sacrifice
samer
sapiens
saubere
schaffung
schmerzhaft
schneidet
schritten
schwanger
schwellen@@
secretary
si
siehst
sin
sinnvoll
sou@@
sowjetunion
springt
sprü@@
stabil
stabili@@
stationen
statten
stered
stern@@
steten
steuer
stimmte
stimul@@
stischer
strö@@
ströme
stürzen
surfing
surgeries
säugetiere
taiwan
talen
tausend@@
tetes
therapien
thermal
touri@@
trauma
trivial
umfrage
una
vaccines
venter
verbesserungen
verbrei@@
verheiratet
verkehr@@
versicherung
versionen
verteidigung
verwand@@
verwen@@
verzerr@@
visualisierung
weigh
weiß@@
whoever
woraus
würmer
wüsten@@
zealand
zugriff
zunge
zutaten
öff@@
ökologie
örtlichen
24-@@
40,000
49
8.@@
absence
aktivi@@
alkohol
alo@@
ampu@@
angewendet
anrufen
anspruch
approached
aqu@@
arbeiter@@
artig
ate@@
ation@@
aufgestellt
aufhalten
ause
ausprobiert
auszuprobieren
automobil@@
az@@
bacterial
batterien
beeindruck@@
begeisterung
bemühen
benzin
berater
bern@@
beru@@
berühr@@
bezirk
bhutan
biegen
bills
binary
breakthrough
breiten
bugs
börse
bürgern
catching
cians
column
commodity
consu@@
corals
cube
dama@@
datenbank
deepest
denkens
denker
deser@@
destroying
dicke
dirt
disability
doha
donor
doubled
drucker
dumb
einfallen
eingeschränkt
entwicklungshilfe
essi@@
estimates
ewig
excitement
exclu@@
existierte
exo@@
experimenti@@
exploit
fair@@
fantasy
favelas
favorites
feeds
fence
fir@@
flus@@
flüge
fon@@
freier
freiwillig
fundament
galileo
gerte
gesture
getrieben
gewal@@
gien
go-@@
great-@@
grundlagen
guilty
habit
habits
heading
hitler
horn
iconic
inci@@
ind
information@@
infra@@
integrieren
intellektuellen
interfaces
internet-@@
ish@@
items
jahrelang
jederzeit
jegliche
jerry
jon
journalists
juli
kanäle
karti@@
kehren
kenntnis
kleinsten
kognitiven
kollege
konser@@
konstru@@
konstruiert
konver@@
kyoto
königreich
künstlichen
küsten@@
lasen
lehnen
leidet
lichere
ligh@@
likelihood
lions
lips
lisa
lit
litten
lock@@
lohnt
magnitude
maler
malte
mammo@@
margaret
mentation
menten
messungen
million-@@
mindset
mixing
mlich
mme
movember
muslimischen
muster@@
müde
müsst
nahr@@
nearest
niedrigen
nin@@
nutrition
nutzte
obere
obese
oftmals
olympics
orleans
oy@@
panbanisha
pat
patch
peaceful
perceived
phenomenal
pig@@
pilze
plä@@
posed
ppte
predi@@
prints
promin@@
prothese
readers
reed
reformen
remix
residents
ria
rna
robotern
rsw
rul@@
satelliten@@
sauber
schafe
schal@@
schatz
schizophrenie
schot@@
schrift@@
schwachen
schwelle
seemingly
senator
ses@@
shore
simulator
sively
sklaverei
sn@@
sometime
spezialisten
spon@@
sprang
staates
stehlen
sterblichkeit
stige
stolen
stored
strategic
struktur@@
stränge
studierenden
stärksten
stücken
succeeded
sul@@
surgical
surveillance
tali@@
tar
tattoos
tech@@
temporary
terte
teuren
texts
tickets
tinte
toller
topics
tour@@
trennung
turen
turm
umfang
umher
v-@@
vereinen
vermuten
versetzt
vertrauens@@
visu@@
visually
wahrhaftig
wedding
weiterzu@@
weltraum@@
winner
wänden
yemen
zeitspanne
zeugen
zusammenfassen
zwecke
zyklus
ärer
öffentlicher
&apos;clock
100-@@
1960s
5.@@
53
58
=
abu
aching
acquired
acre
adju@@
aesthetic
agreement
aids-@@
aim
alisten
amanda
amsterdam
analo@@
analysiert
angebracht
angiogenesis
anhören
anne
anwen@@
anwesenheit
anzufangen
archive
arians
asian
aufweisen
ausgehend
authors
avenue
aver@@
bauch@@
baue
bedingung
beeindruckende
beeinflus@@
behand@@
beobachtungen
berücksichtigt
beschrieb
bestimmtes
betreffen
betrug
betäu@@
bewunder@@
biomass
brennstoffe
bungen
bury
bücher@@
camp@@
candidate
carries
cheat
chines@@
cious
classi@@
colum@@
comm@@
comparing
computational
concerns
condoms
consumed
cooperative
copenhagen
correc@@
coun@@
coverage
ct@@
cyrus
damaged
darfur
dated
dates
demogra@@
demonstrieren
dents
deployed
digte
disagree
discher
drama
ea@@
editor
eigh@@
elektronischen
ences
engagieren
enjoyed
ere@@
erie
erkannten
erosion
erscheinung
erstmals
erzähl@@
erzählungen
esti@@
evolutions@@
fahre
feier
feinde
females
festzustellen
firing
flügel@@
forschen
frequently
freundschaft
frieden@@
frightening
funds
fähigen
gary
gemeint
genheit
gerei@@
geschaut
gestohlen
gesünder
gigan@@
globales
graphs
grei@@
hausaufgaben
highlight
hometown
hood
horizon@@
hunderttausende
hülle
ie-@@
imit@@
institution@@
instru@@
intact
intensi@@
iranian
ital
kanten
kehrt
kehrte
kilo@@
kine@@
kit
klang@@
klassifi@@
klick
klicken
kluge
komische
kommentare
komplizierter
kontra@@
kopiert
kritiker
könntest
labeled
landing
langzeit@@
legi@@
leser
liebling@@
lo
loving
läden
manifestation
manipulieren
maria
massiven
merkte
methan
mie
mmer@@
mod@@
molekular@@
mood
multiply
myth@@
mäuse
mühe
nacht@@
nap@@
nebeneinander
nährstoffe
odor
ong
optimal
panic
pation
pei@@
poe@@
pop@@
prioritäten
programmers
proportional
prosperity
purple
py@@
quadratmeter
raped
rays
reaktor
recommen@@
reifen
resolve
reson@@
respektieren
ressource
rettet
revealed
rex
rieren
right-hand
ritu@@
rituals
rotate
rough
sake
saul
scaling
scan@@
schaffe
schall@@
schief
schlacht
schliessen
schlü@@
schock
schriften
schweigen
scrip@@
shepherd
sichere
single-@@
sische
skype
solo
sowieso
spontan
stairs
stays
steak
steckte
ston
storms
stres@@
striking
stätten
substan@@
sweeney
switched
symbio@@
synthe@@
systematisch
szenario
tarian
tations@@
taxes
teller
tendieren
teres
territory
tick@@
titan@@
titanic
toiletten
transplantation
tuch
tuned
tv-@@
u-boot
ulen
umfasst
umgewandelt
unbekannten
understands
unseen
useless
variations
vege@@
vergewaltigt
vergrößert
verhandlungen
vermu@@
vertei@@
vertreten
vertreter
veröffentlichten
voran
vs
vögeln
wahnsinnig
weitaus
wenigsten
whe@@
wid@@
wort@@
wrap
wör@@
yers
young@@
zahlt
zulegen
übersetzung
üblicherweise
ück@@
ücken
---
1976
1986
25,000
57
6-@@
77
87
92
ablauf
able@@
absichtlich
accountability
adop@@
advances
agents
amazingly
analog
angewiesen
ansprechen
anzeigen
apples
arena
ares
argumente
aristotle
arity
artenvielfalt
assets
astronomen
aufgezeichnet
aum
ausbreiten
barriers
basketball
bausteine
beautifully
bedroom
begriffe
beschaff@@
betrachte
beurteilen
bian
bildes
biom@@
blitz
blättern
bonus
broad@@
bö@@
cables
cares
cd
chert
chinesisch
christ
cis@@
cocktail
cola
concentration
contemp@@
continuously
convey
copied
copies
covers
craft
crea@@
criminals
crossed
curi@@
dancers
darpa
degra@@
demonstrated
depri@@
determines
devastating
dien@@
dinosauri@@
discrimin@@
displays
dity
dog@@
dosen
dunkel@@
durchschnittlichen
edward
ells
embarrassing
encouraged
entkommen
entry
erfüll@@
ession
eva
exponentiell
failures
filling
findings
flagge
flexi@@
foxo
freizeit
friedens@@
fst
fundamentale
füllt
gains
gedul@@
geglaubt
generator
geprägt
gespräch@@
gesundheitsversorgung
gie
glücklichen
gruppen@@
guitar
hack@@
harmonie
herausgestellt
herde
herzlichen
hetero@@
hostile
humani@@
hus@@
ierung
immerhin
immunsystem
indonesia
inevitably
ingen
ingenieuren
intel
intellektuelle
interaktionen
interconnected
isch-@@
itäts@@
jam@@
japanischen
juice
jum@@
jäger
kandi@@
kate
ke-@@
kings
klin@@
kollab@@
kollektiven
kommentar
kontrolli@@
konzer@@
korean
korn
kreu@@
krist@@
ktive
kunststoff
ladungen
lap
leopard
lifespan
lifted
linsen
lion
liter@@
live-@@
locally
lor@@
mac@@
mahlzeiten
mahmoud
markieren
markiert
maschin@@
massi@@
master@@
me-@@
meals
medication
meen
mesh
metast@@
metric
miller
mimi@@
mimic
ministry
mode@@
modi@@
murder
mäd@@
märz
mäusen
neigung
nel@@
networking
nicole
nigeri@@
nonsense
noti@@
nutzer
nähr@@
obdach@@
observations
oecd
oes
orientiert
oscar
pain@@
pan
patents
patri@@
pflanz@@
pioni@@
pis@@
platforms
platzieren
plot@@
porno@@
potter
processor
professors
profil
prop@@
pulse
raums
rauschen
reaches
reader
reas@@
recommend
rem
revol@@
rewards
ric
risky
rolled
rory
röhren
sammelten
schil@@
schlägen
schrecken
schufen
sectors
shifts
sichern
simplest
skosten
slogan
smells
sorgfältig
spinn@@
spinnen
steuerung
stics
stisches
stit@@
stoß
stun@@
stätte
stü@@
stühle
sung
supermarket
talents
taxi
temperatures
terrorist
themes
transit
twenty-@@
tägliche
u.k
ultrasound
umgesetzt
unabhängigkeit
universes
unmögliche
untereinander
up-@@
variationen
ve-@@
vegas
venus
vereinfa@@
verpflichtet
verschwand
versteckten
veränderten
vulkan@@
wacht
weis
welfare
who@@
wishes
wore
wr@@
wäsche
würfel
yo
yr
yte
ziger
zimbabwe
zubringen
zugrunde
zusammengefasst
zustände
ände
öse
überein
übernommen
überzeugungen
übliche
160
1983
2,5
200@@
30s
54
8,000
abundant
acids
acquire
aged
ala
algebra
allein@@
amerikanischer
anas
anes@@
angeschlossen
angri@@
anschließend
appeti@@
approximately
ara
aristoteles
asth@@
atlantik
attracted
aufwuchs
augu@@
ausland
aussagen
autonomy
aßen
baten
bauern@@
behinderung
bemerkenswer@@
berat@@
blas@@
blich
blindness
brauch@@
brut@@
cage
canvas
cattle
cent@@
christen
chse
clinics
cocaine
collectively
constitu@@
cooler
custom@@
daraufhin
dauernd
deadly
deb@@
decision-making
dent@@
destination
dex
diarrhea
digungen
diplomatie
documented
door@@
dou@@
double-@@
drin@@
dritt@@
dunkler
durchaus
durchschnitts@@
e.@@
earth@@
echo@@
effiziente
einbringen
einfachste
eingesch@@
eleanor
emplo@@
empower
endgül@@
enten@@
entwickler
erinn@@
errichtet
erschaffung
erstaunliches
erwischt
eten
eurem
exten@@
extremen
far-@@
feuern
fielen
figu@@
flam@@
flavor
fledermäuse
flei@@
fördert
füll@@
galerie
galois
gau@@
gegenwärtigen
gela@@
gemü@@
genossen
geschaltet
gespannt
gespeichert
getreide
glaubens@@
gling
graduated
grove
größtenteils
gues
hallucinations
hals
heimatstadt
herstell@@
herumzu@@
hob@@
holders
holocaust
humanitarian
hungrig
hybrid
identisch
illa
imagin@@
imitation
imm@@
ingredient
inhal@@
inieren
innenstadt
installed
instin@@
intended
internation@@
introduction
intui@@
ipods
irration@@
isoliert
jahrhunderte
jargon
jedermann
ji
juden
jugendliche
justi@@
kak@@
kali@@
kant
keepers
keinerlei
kels
ket
kle
kleben
koennen
konflikten
konkurrenz
konsu@@
kostenlose
krü@@
kus@@
künstlich
landkarte
lanes
laun@@
lebensunterhalt
lhc
llt
low-cost
magician
manner
marin@@
mask
matched
meinten
melodie
merkwürdig
militärische
mitgliedern
mosquitos
mäß@@
natalie
nebel
non-zero-sum
num@@
olympic
optical
overwhelmed
overwhelming
ozeanen
pa
paradigma
pentagon
pepsi
periods
pharmaceutical
phi@@
philosoph
plattformen
poll@@
potenzi@@
pouring
ppy
practicing
pricing
privileged
pulls
qualifi@@
rabbi
realization
rechner@@
regal
regional
repar@@
request
res
rethink
rich@@
richtlinien
riding
ring@@
risd
satellites
schaft@@
scheiße
schizophrenia
schnellsten
school@@
schwi@@
self-interest
sendungen
separ@@
separation
seri@@
sha
shel@@
shr@@
side@@
significance
slower
software-@@
solches
sonn@@
sony
spaghetti
spinning
spunkte
stal@@
stapel
staring
starkes
staub@@
steigerung
stic@@
stically
storyteller
strahlt
strang
strations
studierende
studierte
stär@@
survived
synchroni@@
synthesis
tales
tei@@
terrified
teurer
thesis
tie@@
tool@@
trading
transmit
trapped
treffe
tum
tänzer
tödliche
ual
uc@@
unendliche
ungskraft
unic@@
ursachen
vac@@
verbal
verhalten@@
verhaltens
verzwei@@
vorhersage
vorkommt
völker
wachsen@@
whoa
wissen@@
witnessed
wonach
woo@@
worin
wunden
wurzel@@
wärmer
youngest
zap@@
zeitschrift
zip
äch@@
äng@@
überfluss
übersehen
0s
1975
1982
200.000
40.000
6.@@
60,000
60er
83
84
abandoned
abhängi@@
accelerate
accelerating
accomplished
activated
acu@@
acumen
addiction
affe
affen@@
aimee
aktivisten
algae
aling
alltäglichen
anbauen
angelegenheiten
angiogenese
anom@@
anth@@
apfel
appreciation
archimedes
ared
assembly
ature
ausdrucks@@
ausgeht
ausgestattet
autobahn
außerordentlich
avatar
barbar@@
baum@@
beat@@
becher
bedeuts@@
beds
beef
begehen
behalf
beinhalten
besit@@
besuche
beunruhigt
beweg@@
bic
bien
bikes
blah
blew
bp
brech@@
broader
bud@@
buddhi@@
bund@@
bä@@
caps
cds
celebrity
chemist
cky
coding
conductor
coordination
corresponds
crop
dazu@@
demü@@
dend
depos@@
detector
diagnosis
diego
dien
direkte
disgust
distinction
dom
drei-@@
durchgehen
durchzu@@
dynamisch
dünne
einschränkungen
eintreten
einzelnes
eled
ement
empfangen
enge
enor@@
entspan@@
episode
equals
erdoberfläche
erup@@
eu
exi@@
expan@@
expanded
expressed
famili@@
famine
farther
femini@@
fever
fired
flickr
flüsse
fores@@
formul@@
fotografen
frames
französische
freun@@
frogs
fron@@
frosch
functioning
fund@@
fuss
füttern
gebrauchen
gedichte
gehirnen
generates
geren
geru@@
geschla@@
gesten
gesunken
gezeichnet
glamourös
gramme
grams
graphie
greifend
grundschule
gänger
halle
herkommen
hertz
hex@@
hierarchy
hoo@@
hopeful
hunter
häss@@
höchst@@
höhen
hühnchen
icons
identifiziert
iler
improvis@@
indonesien
ini
install
intro@@
ion
item
ity-@@
jahres@@
judgments
jüngere
kauften
kh
klatschen
klänge
kommst
kondome
kühlen
künstler@@
langfristige
lap@@
laughter
lay@@
lectures
ling@@
loan
locks
logi@@
longevity
lud
lum@@
ly-@@
managers
mani@@
mankind
mans
mega@@
melden
membran@@
mend
merk@@
metals
metaphor@@
millennium
mission@@
momentum
mutationen
mycelium
mächtigen
nevertheless
niedriger
nissen
numer@@
nutze
occupy
oll
ologi@@
opinions
orders
oregon
outsour@@
pads
parameter
paras@@
partei@@
pays
periode
peripher@@
pets
pf
phen@@
philippe
philosophers
philosophical
phosphor
physicians
physikalische
phänomen@@
pond
port@@
predator
priority
prisoner
prob@@
produzenten
profitable
projektes
proved
präsen@@
pump@@
rd
realisieren
recur@@
reflected
refugee
regimes
reproduce
repräsent@@
rezession
richtete
rohstoffe
ron@@
roofs
rosa
rufe
sadly
safely
salz
salz@@
schalt@@
schaltkreise
schiffe
schne@@
schni@@
schnittstelle
schwar@@
sco@@
seawater
selec@@
seltsamen
sent@@
sequences
seventh
shing
shops
shorter
shy
sorte
specialized
spell
spinne
stands@@
starren
stich@@
stigma
stimmung
stine
stoffwechsel
stomach
stunt
suggestion
sungs@@
süd-@@
tagged
tansania
taus@@
tedster
tennessee
textbooks
theoretisch
tigem
tious
tooth
tra
trainer
triangle
trinkwasser
tropical
trum@@
tts
twin
türen
u-@@
ueber
umsonst
unconscious
ush
vali@@
vary
vations
vegetable
vereint
verfü@@
verknüpf@@
verla@@
vermei@@
verschaffen
viewer
vollständige
walter
wertvolle
wiederhol@@
wiegen
wilde
wis@@
wohnzimmer
wolf
wood@@
workplace
wählt
yeast
zertifi@@
zeug@@
zurecht
zusammenbruch
zusammenkommen
zylinder
zähl@@
ärm@@
ät
ökologischen
ösen
übertrag@@
üblichen
,000-@@
1957
abundance
ac
activ@@
activists
adul@@
agrar@@
alfred
alternatives
amm@@
anesthesia
anfühlt
angeblich
angezogen
ankam
ape@@
archae@@
archiv
arznei@@
astronom@@
astronomy
ator@@
aufhört
ausgelöst
barbara
barefoot
beaten
beck
beherrschen
behold
beispiel@@
beliebigen
belly
beobachtete
beraten
beschaffen
beschädigt
bese@@
bestandteile
bestätigt
bezogen
biologe
biomasse
biot@@
blickt
boots
bos@@
boun@@
buchstab@@
bull@@
cart
catholic
celebrated
chapters
chasing
chem
chemotherapie
chronic
cleaning
cnn
collider
color@@
colorado
consuming
cooling
copper
crimes
cro
dawkins
democra@@
descen@@
desperately
deut@@
dg
direc@@
disap@@
dome
dow@@
dringt
ds@@
durften
eingenommen
einzelner
eisen
elektr@@
ellem
entschloss
entschuldigen
entwur@@
enzyme
erden
ereig@@
erfüllung
erle@@
ermutigt
estate
este
ey@@
fange
fantastisches
fbi
feuerwehr@@
fleck
flö@@
friendship
frustri@@
frustriert
furchtbar
fün@@
gasoline
gb
gehry
geograph@@
georgia
geradezu
geringsten
geschätzt
gewaltig
gewidmet
gewöhn@@
ght
ght@@
glori@@
glühbirne
gour@@
grains
grey
größen
guards
hacking
haf@@
hard-@@
hef@@
herbei@@
hervorbringen
hopes
hyp@@
iceland
ikon@@
illi@@
implant
incident
infinity
inno@@
interessierte
intimacy
intimate
intra@@
invasi@@
jennifer
jury
jüngeren
kambodscha
kategorie
kets
kohlen@@
kolli@@
komplizierten
konferenzen
kosmos
krat@@
kühlt
künste
kürz@@
legiti@@
lexi@@
liebten
lische
lity
livestock
lkw
loose
lustige
manage@@
marked
mia
minder@@
mitchell
mitgefühls
molekülen
mother@@
mutations
mutig
möbel
nano
neanderthals
nicholas
night@@
nm
nordpol
nähern
obsession
ocean@@
offensichtliche
olog@@
one@@
onia
ont@@
oops
ope
organische
orph@@
owners
paar@@
pam@@
paradig@@
paran@@
partnerschaft
pest
pfer
phänomene
pigeon
pipes
plasti@@
poles
politikern
poni@@
populationen
pour
pray
preparation
prey
primate
prototyp
prozentsatz
psyche
psychische
pumpe
punishment
radar
ramp@@
rang
rasse
ratte
reasoning
recall
recycl@@
recycled
rede@@
rente
repeated
republicans
rier
riesig
roger
romantische
roosevelt
rotten
schar@@
scher@@
schirm
schritt@@
schuhen
schweizer
schwimm@@
screening
sculptures
seals
selbstmord
sends
sergio
setz@@
shining
sick@@
sim@@
simulieren
singapore
sizes
sma@@
soap
sole
somalia
spir@@
spor@@
stanley
stopp@@
stopping
studi@@
stunning
stört
supreme
switzerland
symmetries
symptom
table@@
tains
talente
tank@@
tants
technologi@@
tedly
teig
them@@
thrilled
tight
tismus
toilets
touching
towns
traces
transpor@@
travels
treibhausgase
triumph
trock@@
tul@@
tumore
twist
tzer
tän@@
umwandeln
unheimlich
universen
upside
urs
utop@@
va-@@
verfügt
verhaltensweisen
verkauften
verlässt
verstärkt
versuchs@@
verwund@@
vibra@@
viert
viewing
vinci
visuell
voraussetzungen
vorgehensweise
vy
wahrheiten
warst
weiblichen
weiser
weiterentwickelt
wohingegen
wohlhab@@
woll@@
workforce
worm
zivil@@
ähnlicher
äne
ängen
ärger
äußeren
überdenken
überqu@@
)
1,500
12,000
150,000
17th
1949
1985
46
56
70@@
74
82
aa
abkommen
acc@@
accuracy
adopt
advan@@
age-@@
algorith@@
ally-@@
amphi@@
angriffe
annähernd
anten@@
anthropo@@
antreibt
architektonische
arden
argumentieren
arkansas
assumed
athle@@
atmosp@@
aug@@
ausbruch
ausgezeichnet
ausnahmen
auswei@@
auth@@
awkward
b.@@
bacterium
bangladesch
bathroom
be-@@
bearbeiten
bedeutsam
begeben
belongs
benennen
berücksichtigen
beschäftigung
bonobos
bother
botschaften
bra
brennen
broccoli
bruchteil
call@@
canadian
cand@@
candidates
captcha
carter
ceremony
cha
christopher
chs@@
chst
cially
circum@@
comments
composition
compute
constraints
contributing
convicted
copying
corners
cups
d.h.
dampf@@
dare
dauer@@
defend
dekor@@
democrats
desperate
diamond
disciplines
documentary
dramati@@
eats
eck@@
economically
ehren@@
einbeziehen
einfach@@
einladen
einsicht
einzugehen
element@@
embracing
empath@@
englisch@@
enhan@@
enormously
enterprise
entscheidenden
entscheidet
enttäuscht
entwickel@@
ernte
erschienen
erstmal
erwachsen
erzeu@@
essex
exam
exotic
expen@@
expres@@
extremi@@
eyed
fai@@
fasste
feind@@
ferne
festen
feuert
ffer@@
fi
fiktion
filmmaker
firms
fischer@@
flecken
flugzeugen
fluss@@
flächen@@
folien
formal
foto@@
frequencies
friedman
frontier
fähige
führende
führer@@
fürchten
gardens
gebühren
gegenwärtige
geleistet
gemerkt
genie@@
gere
gesicht@@
gestoßen
geträn@@
gewissem
girlfriend
gled
gler
glie@@
glorious
gläu@@
gon
gos
graphen
greg
grow@@
größ@@
guard
gärten
gü@@
haken
handel@@
harten
hauptstadt
heimat@@
helix
herd
hiermit
higgs-@@
hindern
hingegen
hohem
hormones
hosen
hypo@@
häl@@
häup@@
ideale
idealen
imitieren
implement
implemented
intuitiv
inventions
isation
ison
jagd
jog@@
junges
jüngste
kalku@@
kammer
khmer
klappen
koloni@@
kommuni@@
konsequenz
konversation
krater
kriegs
kriminelle
kritischen
kün@@
lampen
lan
lasting
lautsprecher
lebanon
lebenszeit
lesters
leucht@@
liebes@@
lings
lizen@@
luke
melan@@
meme@@
mien
mikro-@@
milky
mirrors
mitmachen
mochten
mola
mona@@
moo@@
mut@@
mörder
nachhal@@
nachher
naive
neurowissenschaft
niedrige
noah
notation
obe@@
observed
octopus
ographie
ola
ologically
ologisch
oney
ony@@
oppres@@
orium
paare
palette
parachute
paradox@@
parenting
partikel
peer
pencil
penny
perio@@
pessimi@@
pfeifen
pfle@@
pilz
planet@@
planned
plato
playful
pois@@
pol
polari@@
polizist
portland
pots
predic@@
premise
prince
probiert
producers
produkt@@
programmed
progression
projection
promises
proto@@
prototypes
provin@@
puzz@@
quarters
queens
randomly
rebel@@
receiving
recognizing
recru@@
reihen
rem@@
resour@@
revolutions
rg
rin@@
romo
routine
russell
ryan
rückgang
sammelte
schale
schaltet
schlau@@
schlicht
schnitte
schnitten
schwach
schwierigsten
schätzt
schätzungen
secular
sensor@@
setzung
sexually
sichts@@
sigkeit
singapur
sketch
sobule
sommer@@
sound@@
spac@@
spart
spass
spri@@
spürt
squir@@
statistical
stattfand
stert
stockholm
suey
sungen
supercomputer
symmetrical
säure
talenti@@
tatsachen
tedsters
tedx
teilzunehmen
tempel
temperaturen
terrific
thunfisch
tigten
tling
toren
traurige
triebenen
trips
trusted
trö@@
tta
tty
turing
tötete
ubuntu
ulating
unfortunate
unterschiedlicher
untersuchten
urteil
utterly
valent@@
verarbeitet
verblüffende
vering
verlaufen
verletzen
verringert
verwendete
verwirr@@
visiting
visualize
vorbereitung
wald@@
warmer
wasserstoff@@
web-@@
webseiten
weighs
weitergegeben
wet
wet@@
wies
wissenschaftlerin
wrapped
wurzel
wählten
zar@@
zeichneten
zeitschriften
zeuge
zielt
zonen
zurufen
zw@@
zy
²
½
äres
überlegt
1.5
1918
3.
40-@@
5000
70er
93
abe
acceptance
accoun@@
activate
adaptation
adresse
afghan
aha
akzep@@
alike
alla@@
anatomie
anatomy
and-a-half
anfan@@
angen
ansah
ansteck@@
anzupassen
apparat
applaus
ar-@@
asen
associate
asym@@
attacked
ausgangs@@
barmherzigkeit
beamten
beetle
befolgen
behinderungen
bereitschaft
bergsteiger
bestä@@
bestätigen
betrügen
bevorzu@@
bevorzugen
bewerkstelligen
bezo@@
bj
blumen@@
brauch
brennstoff
bucht
buddhist
burger
bälle
calculated
cambodia
catastrophic
caves
cello
cence
charter
cheating
chemotherapy
christians
chtigen
compe@@
concentrate
conduct
consider@@
correlation
counter
counter-@@
counts
credi@@
critic
cular
dale
delivering
depic@@
depressionen
designen
devoted
diagramme
digging
disappears
disasters
dod@@
dokumente
dow
draht@@
drang
een
ehen
einladung
embar@@
emi@@
engagi@@
entdeck@@
entnehmen
entsprechen
erdgas
erender
erfolgs@@
ermöglichte
erwartete
erweiter@@
erweiterung
erwi@@
essens@@
essenz
essive
evange@@
exceptions
exploded
fahrrad@@
fatal
festivals
filmemacher
flugzeug@@
forgive
frage@@
freak
freud
frühstück
fulness
fäch@@
fän@@
gebir@@
geist@@
geladen
gelandet
gelten
gemeinnützige
genu@@
gesang
geschö@@
gestures
gewissheit
gies
gießen
gitter
glühbirnen
greenland
gungen
guru
götter
günstig
h.
hadron
haftes
hasse
hausti@@
heavily
herausfand
herausfanden
herauskommen
hinterher
historisch
hofft
horri@@
hudson
hüfte
ians
imperative
impli@@
impuls
indu@@
infektion
ings@@
interventions
irgendeinen
irr@@
irs
isaac
iter@@
jews
johan@@
jonas
jud@@
kaffee@@
karto@@
kiss
klassen
kollaps
konserva@@
kraftwerk
kund@@
kurven
kämpfe
küchen@@
lamp
lande
leichten
leo
leop@@
libr@@
lithium
lonely
luci@@
längere
marke@@
materielle
maxi@@
medikam@@
meeresspiegel
meg@@
meln
mens
microscopic
mind-@@
minerals
missbrauch
mister
mitzu@@
mobilität
modellen
molekulare
männer@@
mön@@
nadeln
nasty
nder
negle@@
nervensystem
netten
näher@@
nö@@
nü@@
occasion
oi@@
optionen
organisierten
orienti@@
palästinen@@
panzer
parlament
pearl
peinlich
persönliches
petr@@
pfi@@
phasen
phe@@
piles
pit
pity
platziert
poems
polen
politically
powder
prayer
praying
preventing
priorities
priv@@
promising
protocell
r.
rage
rap
rape
rapi@@
rasch
reflex
rehear@@
repor@@
reporting
ri
robotik
robu@@
rockets
roo@@
rump@@
röhre
sammler
sation
satisfaction
sauber@@
schaltkreis
scheu@@
schickt
schließe
schlimme
schmeckt
schreiten
schweiz
schönsten
scrat@@
sequenzen
shat@@
shoe
shoulders
sieg
sierten
simulate
skate@@
slice
slope
snake
snow@@
solle
speku@@
sperr@@
spiders
spiral
squares
sta
stande
standort
stated
stiges
stranger
streichen
stürzt
südlich
sün@@
talented
tangible
tastatur
tax@@
tee@@
teena@@
teilungen
tell@@
tender
therapies
threatening
tippen
towers
toyota
trauri@@
trou@@
tted
tters
ttet
tude
turbul@@
tätig
u.@@
ufer
ulated
ultraviolet
unabhängi@@
under-@@
ungs
unity
unle@@
unternehmens@@
unterschied@@
unterstütz@@
urlaub
ust
vent
verblüff@@
verfassung
vergleichbar
verschlei@@
versichern
vornehmen
vorzubereiten
wiesen
wirtschaftlicher
wissenschaftlicher
wives
wound
ya@@
yard
zern
zero-@@
zuständig
zweig
ähnelt
älterwerden
ös
übrigen
18th
1978
1987
1992
39
6.
62
73
79
abschließend
absol@@
absoluten
accompanied
accum@@
achieving
add@@
addressing
agile
airline
aled
allies
allmählich
aluminum
anatom@@
ane@@
anerkennen
angemessen
angles
answering
aorta
arbeitern
areale
argues
artifacts
assistance
assozi@@
aston@@
astronomers
auditorium
austin
auszugeben
bahamas
bai@@
bal
basis@@
basking
bbc
beacht@@
bedient
bedrohungen
befür@@
belei@@
bell@@
benutzer
beruhi@@
beschul@@
besorg@@
beton@@
betrachteten
betrag
bilanz
bilder@@
billy
braun
brave
breitet
briten
browne
bureau@@
burns
bün@@
bürgerkrieg
carto@@
cathedral
cephal@@
chao@@
charakter@@
chel
chemiker
chten@@
cloth
clues
colli@@
composed
condi@@
consensus
contained
convention
cope
cot@@
counted
countless
cracks
criteria
cum@@
danny
dauerhaft
dbar
debris
democracies
demonstriert
differen@@
dir@@
dley
dodo
doses
dreidimensionalen
dubai
dumme
dunkeln
dynamische
eb@@
eil
eltern@@
embarrassed
embryo
emotionally
empfänger
enthüll@@
entrepreneurship
entschei@@
equity
erfolge
erklärungen
erlebte
ernste
erwecken
esi@@
establish
eternal
ethics
existierenden
fahrten
fault
femin@@
feuchtigkeit
fifty
fili@@
fischerei
fitness
fokussiert
forcing
franklin
fremd@@
friction
fried
fris@@
fundraising
führungen
garten@@
gattung
gebie@@
gebilde
gefangenen
gefährdet
gegensei@@
gehei@@
gelo@@
gelungen
gemalt
gepar@@
gerä@@
gesellschaft@@
gesprächen
getreten
gewinnung
gic
gliche
glücks
god@@
goldenen
gover@@
govern
happily
hefe
helden@@
hig@@
hnte
homo@@
honored
hten
huhn
humility
iden
illusions
indicate
indigenous
informiert
iniert
injured
innovate
ino
interak@@
interne@@
investigation
irrelevant
isierten
itali@@
jacqueline
jazeera
jordan
jumping
junior
juvenile
jähriges
kampf@@
kauf
kleider
knac@@
komponi@@
kon
konto
koralle
korb
krankenhaus@@
krebszellen
kritik
krokodi@@
krümm@@
käse
körperlichen
langfristig
lanka
league
leder
left-hand
lehrplan
libellen
liberty
lierte
lifes@@
linking
log
loo@@
loy@@
lädt
lähmung
läufer
lücken
magnet@@
mahlzeit
maintenance
malari@@
malcolm
mali@@
mammal
man-@@
manifest
manns
margin@@
mathemati@@
meeren
meets
melo@@
melting
mented
messy
miami
mischer
mixture
mmed
molekularen
monit@@
mono@@
motivate
multination@@
multinational
mun@@
musikalische
nachbar@@
nebenwirkungen
needles
netherlands
netzwerks
neuseeland
nevada
nieren
nights
nity
nollywood
nonetheless
nucleus
ohr@@
ologien
operated
oping
ordered
oriented
ow@@
parkplatz
passend
passions
patente
patenti@@
pathways
patientin
pern
perspektiven
pfad
pflicht
phili@@
pillen
pioneer
pix@@
planted
pleased
pli@@
presidential
prie@@
primates
privatsphäre
processed
produktiv
quo
rannte
receptor
reck@@
redeten
reduktion
relatives
reno@@
repe@@
resses
reu@@
revenues
revi@@
rituale
riverside
rolls
rom
rows
rund@@
rücken@@
sally
scannen
schad@@
schall
schlangen
schri@@
secu@@
seg@@
sensible
sequ@@
sequencing
sergey
serves
shelves
shield
shifted
sicherheit@@
sichtbaren
sinni@@
sionen
sorg@@
spunkt
spür@@
standes
start@@
starteten
statt@@
stattgefunden
stehenden
stigt
stlich
stoß@@
strikes
sufficient
surviving
sweat
syndrom
tans
targeted
taucher
techn@@
teilhaben
teilnahme
telefone
terminal
texture
therapeu@@
thunfische
time-@@
tioning
tions-@@
titles
touches
tourist
transistor
translator
trinkt
tuesday
turn@@
tweet
type@@
ultra@@
ultraschall
umbringen
unerwartete
unterir@@
unterstü@@
verhe@@
verpflichtung
verrichten
verschmelzen
verteidigungs@@
verwende
verwirrt
verwü@@
vie@@
virtu@@
visionen
voyager
wahrgenommen
weizen
well-known
wick
wiederaufbau
winde
wins
wirksam
witze
wolle
wom@@
wähl@@
wäldern
yan@@
ype
zellul@@
zerstör@@
zigern
zit
zuhörer
zurückzukehren
zwang
zweit@@
zwie@@
zwischenzeit
zügen
älteste
ästhetik
überflu@@
übersetz@@
ückt
üsse
-syndrom
18-@@
1930s
1962
1974
3000
41
80-@@
89
90er
abgeben
ablen@@
absorb
abstrakte
access@@
acres
aggre@@
aka
alem
amateur
ambition
ambitious
ancestor
anfangs
anniversary
anstrengungen
ansätze
anthony
archä@@
arri@@
artwork
asset
assuming
astronomie
atheisten
atives
atomen
atr@@
atro@@
aufgehört
aufruf
aufzugeben
aura
authenticity
außerord@@
awa@@
baumwolle
beats
bedecken
befanden
befreit
behandlungs@@
bent
berech@@
beruht
beute
bieren
bittet
boeing
borrow
brands
bribe
brick
brutal
calculation
cerebral
cern
charis@@
charts
chimpanzee
chop@@
chromosomes
climbed
clusters
coastal
coch@@
collision
columns
common@@
comple@@
compu@@
condu@@
congestion
container
converted
convincing
crashes
cream
critically
crude
cruel
ct-@@
ctable
dab@@
deforestation
delay
demen@@
demos
demselben
dergleichen
deri@@
derselbe
describing
deserves
detailli@@
deutsche
diamonds
dishes
distribu@@
disziplinen
diät
dlichkeit
dokumentieren
dopamin
dreidimensionale
dring@@
drunk
dsch@@
durchfall
eames
ee@@
eff@@
eh
eingebau@@
einkaufen
elaborate
elektron@@
endeffekt
energies@@
engl@@
entscheidungs@@
entwarf
equilibrium
erbar
erneuerbaren
ernsthafte
erzieh@@
ethic
etten
eur
evalu@@
ever@@
expo
extra-@@
fahrt@@
ferti@@
fessel@@
folter
frightened
geborenen
gedeihen
gefilmt
gemein
gemeinsames
genauigkeit
generiert
generosity
genomics
geo-@@
geres
geschichtenerzähl@@
gewässer
goat
grabbed
grafik@@
grafiken
graph@@
greatly
großarti@@
großzü@@
gö@@
habit@@
haz@@
herab@@
heroic
hervorragend
hervorrufen
hindernis
hman
hoffnungen
hospit@@
households
hung@@
hungen
illumin@@
imagining
immer@@
improvements
impul@@
indicates
inform
inspirierend
instinktiv
instruction
integrity
intelligenter
invasion
involve
ironie
irony
ishing
jama@@
journalism
journalismus
ju
jä@@
kamel
karl
katastrophen@@
kende
kidna@@
kis
kocht
kompromis@@
konsum@@
kopenhagen
kopien
kopier@@
kreativer
kreuzen
kris@@
krä@@
ku
kämpft
kör@@
körperlich
landung
langley
laughed
laut@@
leap@@
lebenser@@
leber@@
legitimate
legung
lehrte
letzt
lichung
liebe@@
liehen
logarith@@
machinery
marcus
marktes
maschinen@@
massa@@
material@@
mature
meeresboden
meerwasser
meinungs@@
membrane
metabolism
meter-@@
metr@@
metropolitan
mexican
mikrobi@@
milch@@
milit@@
monum@@
moskitos
männlichen
nachhaltigen
nancy
nau@@
neo@@
nervenzelle
nine-@@
normaler
null@@
observing
organisierte
orn
orthodo@@
osama
ost@@
outbreak
oxy@@
palestinian
paro@@
partnern
partnerships
pathetic
paths
patienten@@
peculiar
perceptions
persönlicher
pfe
pho@@
picasso
piloten
pine
pipe
placebo
plo@@
politician
potatoes
praktischen
prescription
priester
privilegi@@
prostitution
prototyping
psychischen
psychologische
pur
pädago@@
ranging
rauf
rebecca
rejected
rel
religi@@
representative
researching
reservat
resilient
respekt@@
richest
riefen
riff
rift
ris
riss
rome
rus
sands
schliesslich
schreitet
schub@@
schwache
schwein
seither
self-assembly
seltener
semi-@@
sensitivity
sever@@
sexuell
shipping
shred@@
simpli@@
singer
skelet@@
sklaven
solarzellen
solly
spatial
spectro@@
sprich@@
spring@@
spritzen
sprä@@
stare
stellungen
stem@@
sticking
stillstand
streng@@
stuhl@@
ständigen
stöck@@
sucks
summarize
surveys
südpol
t-shirt
tai@@
takt
tape@@
tary
taylor
technolog@@
temper@@
textbook
th-century
theore@@
thinkers
tiefsten
todes
tomato
touch@@
tradition@@
transforma@@
transformieren
trauen
tricky
tup
tus
ucla
ues
uhr@@
umgebracht
unabhängigen
unend@@
ungar@@
unternehmens
vaginas
variables
variante
vel
verbringt
verfügbaren
verges@@
verhaftet
verhältnisse
verknüpfen
verkäufer
verlän@@
vernachlässi@@
verschiebung
versteckte
verstärken
verti@@
verträge
verur@@
verwunder@@
ves@@
veteranen
vielver@@
vocabulary
vogelgrippe
vollem
volumen
wac@@
wahn@@
waschmaschine
washed
weichen
weihnachts@@
wiring
wirtschaften
womöglich
zahlreiche
zeitig
zi
zufälligen
zukünf@@
zurecht@@
zusammengestellt
zusätzlichen
zyklen
älterer
öhn@@
ök@@
ökonom
überwachung
übungen
üs@@
-based
1967
1969
1988
29@@
400,000
7,000
accepting
aci@@
acknowledge
acou@@
alling
allt
altered
ames
analyzed
analyzing
anderthalb
angenehm
ankün@@
anlegen
anpassungs@@
ansammlung
anstren@@
anstrengung
antreiben
anzubieten
apartheid
apes
aph@@
ards
aria
artiges
asche
asing
asleep
asteroids
ater@@
attacking
aufklärung
augmented
ausbreitung
ausgestellt
ausrottung
aussuchen
austauschen
ausüben
authoritarian
awe
aß
balanced
bandwidth
baseline
bast@@
bearbeitet
bedürf@@
begegnung
beher@@
beiseite
beliebige
belohnt
benki
benutzer@@
berechti@@
besaß
besonder@@
betroffenen
bewahrt
beweist
billige
blade
bler
blessed
bluefin
bombsight
botswana
breath@@
brillan@@
broadmoor
broo@@
brunnen
brus@@
bust
buttons
bänder
café
calcium
cardboard
cataly@@
ceos
charakteri@@
chat
checklist
chefs
child@@
chimps
chromosomen
chu
chun@@
cide
cit@@
coll@@
college-@@
colorful
coma
combat
commission
concer@@
condom
confronted
conne@@
connecticut
consent
considering
convenient
cosmos
crap
d.@@
daddy
daf-2
ddt
decent
deciding
declared
deep-@@
default
demokrati@@
demonstrates
dennis
denti@@
deny
designern
detected
deutsch
dichten
digten
discussing
divergence
diversität
dnungen
doc
dok@@
domini@@
dot@@
dragonflies
draws
dreieinhalb
drücke
dsten
duty
dächer
dünn
e-
ed-@@
eden
eduardo
eigentü@@
einbauen
eingebettet
einmali@@
einsatz@@
einzufangen
eman@@
enger
entlich
ereien
erne
ernährt
ernährungs@@
essenti@@
ethnische
euren
ever-@@
evolutionäre
ex
exercis@@
expense
exponentially
facebook-@@
facili@@
fails
famously
feder
fie
fig@@
filmed
filters
fin
fingern
flesh
flights
flor@@
folgten
fortzu@@
französischen
freitag
frequenzen
frisch
fruits
frösche
fälsch@@
gando
ganzer
gebor@@
gebung
gedauert
gefügt
geheime
gehör@@
gelan@@
genommen@@
genoms
gently
geography
gerten
geräusch@@
geschicht@@
geschrie@@
geschäftsmodell
gesichtern
gesto@@
gif@@
glacier
globus
glüh@@
graffiti
grau
griff@@
grosser
grundle@@
gröss@@
grösser
gun@@
hafter
hairs
handlungs@@
harris
headquarters
heck
helmet
hemd
hender
herausforder@@
hierarchie
himmels
hiroshima
historiker
hobby
hoped
house@@
hren@@
humane
hurricane
höl@@
i.
impfstoffe
improvisi@@
incre@@
ineinander
infant
infectious
inflation
informieren
inspi@@
installieren
instinct
intensität
intentions
interfer@@
ishes
jagt
janine
japan@@
jar
jimmy
js
jumps
jungfrau
kable
kat
keit
kes@@
kick@@
kidding
kiefer
klat@@
koffer
kogni@@
korrek@@
krankenschwestern
kreatur
kultivi@@
kungen
körner
kür@@
labels
lateinamerika
lately
lawrence
learns
lebensstil
leidenschaft@@
leistet
leitete
leuchtet
libanon
lichkeits@@
lighter
logy
lokal@@
loswerden
lower@@
lucy
lungen@@
luxus
lächer@@
magazines
magen
mals
mao
materiellen
mathe
matthew
ment-@@
mentale
merkwür@@
metri@@
mind-wandering
mobiltelefone
modern@@
modus
momenten
mädchens
möglichst
napp@@
negotiate
nobelpreis
noble
nötige
o.k.
oming
operates
orized
overnight
pagne
pair@@
paket
paralysis
pathway
pedal
peer-@@
penalty
perfektion@@
persuade
pflegen
pluri@@
politi@@
presenting
prevalence
probanden
proce@@
procedures
professionelle
profit@@
projected
präsenz
psychiater
psychiatric
psychopath
ption
publicly
pumps
qualit@@
rains
raster
rations
rechnet
reflektieren
refuse
regrets
regularly
regulation
regulations
regulieren
replacement
reproduction
republican
requ@@
resist
respected
responded
rey
rezero
rhino@@
rica
rockefeller
rub@@
ruder
ruins
rückkehr
saft
saint
sanitation
saturday
satzes
savan@@
schmelzen
schultern
scientifically
sean
second-@@
segel@@
select
seth
shaking
singt
sioux
skop@@
slu@@
spezifisch
spitz@@
spontaneous
sprung@@
staircase
stand-up
starker
stehende
stest
stirn
subtra@@
superstar
surround
susie
symmetrien
systematic
tanzt
tasten
tating
tauchte
techni@@
temperatur@@
tennis
terror@@
thor@@
thousand@@
tm
toaster
transmit@@
trennt
truppe
tteln
tät@@
umsetzung
unangenehm
ungleich@@
uniquely
unsicht@@
unsinn
vakuum
vancouver
veling
verantwor@@
verbesser@@
vergeben
verluste
vermie@@
vermächtnis
vernetzung
verpassen
verpasst
versa@@
verschwanden
versich@@
veterans
viable
visueller
vollstän@@
wachen
wahnsinn
warner
wasted
wecken
weckt
wegs
wiederherzustellen
wilden
wissenschaft@@
wortwörtlich
wrist
wun@@
yan
year@@
zk
zu-@@
zucht
zugehörigkeit
zunehmen@@
zwangsläufig
zähnen
ßig
ähn@@
überblick
übergehen
übernimmt
üblich
10.
16.
1981
50er
50ern
60.000
78
80er
91
abfolge
abläuft
abra@@
abspielen
acceler@@
accurately
acknowled@@
adds
adh@@
adolescence
affairs
afro@@
afterward
ahnen
akzeptanz
allgegenwärtig
alphab@@
alright
altru@@
amazonas
angesprochen
ankunft
anrei@@
anticipate
anz@@
anziehen
appeal
arabia
arabische
arrow
assembled
atri@@
aud@@
aufen
aufzeigen
ausde@@
ausgangspunkt
ausgerottet
ausgesprochen
ausrichten
auti@@
automati@@
avian
bands
basier@@
baus
bea@@
befehl
befestigt
behauptung
behinder@@
beigetragen
bekannter
belohnungen
benzin@@
bestanden
betreu@@
betrü@@
beunruhi@@
bewus@@
bewusste
bildhau@@
biomedi@@
blüte
boar@@
bonds
bonobo
brazilian
bremsen
brennstoff@@
bür@@
c.@@
cafe
calendar
camer@@
candy
carol
carri@@
chains
champion
cheap@@
chel@@
chers
chuck
cochrane
comic@@
commerce
commit@@
committee
compar@@
contin@@
conven@@
cop
corrupt
courageous
crystal
cursor
dai
dancer
dau@@
decre@@
dedic@@
deines
delight
dering
designt
destructive
diagnostic
dimitri
directors
disappointed
distan@@
distingu@@
distribute
disturbing
dokumentiert
dolby
doo
dor
dra
dreck@@
e8
eck
egyptian
ehemalige
eighth
einfa@@
einfachsten
einfalls@@
einschränkung
einsichten
electri@@
elend
empowering
endeavor
entfern@@
entlichen
entrepreneurial
entschul@@
erderwärmung
erfolgreichen
erfolgreicher
erheblich
erhit@@
erhöhten
erlei@@
ersatz@@
erschreck@@
erspar@@
erweise
erzähl
eröff@@
escal@@
esten
evolutionären
ewi@@
exhibit
expectation
explorer
faden
faser
faul@@
feder@@
fehlende
feier@@
fers
fertigkeiten
fischerei@@
fishermen
fixing
folgendermaßen
fond
fossi@@
fossils
founding
freaks
freundliche
fröh@@
full-time
fundamentalen
funktionsweise
fülle
gaining
galleries
gallon
garantiert
gebenen
geheimen
geholt
gell@@
gemis@@
genial
gericht@@
geschäftsführer
geste
gewalttä@@
gewebe@@
ghter
gift@@
gigen
ginge
griechen
grob
grossartige
grun@@
grupp@@
grösste
gänzlich
hackers
haft@@
halte@@
hated
haushalte
headline
heal
hebel
heit@@
helen
helm
hierarch@@
hiervon
high-speed
hinterkopf
histor@@
hiv-positive
holder
hugely
hul@@
humankind
humble
hy
ideal@@
iel
ier
iles
indic@@
inhalts@@
injuries
innova@@
innovativ
insekt
insur@@
irland
isol@@
issen
jam
jemen
jewelry
joining
jug@@
julie
jünger
kais@@
kalifor@@
kanische
kar
kartoffeln
kator
kay
keni@@
kicked
klappe
kleber
klär@@
komment@@
kompetenz
konzentri@@
korrigieren
kreuz
ktivität
kyros
lande@@
larven
latein@@
lautete
lean
leder@@
ler-@@
lernens
lever
lever@@
lierung
listed
logging
losses
lupe
läufi@@
mahatma
mammographie
manipu@@
mapped
marc
marines
markers
marsch
marshmallow
mass@@
mat
meldet
messung
mi
microphone
mini
minimal
mississippi
mitbringen
mite
modeling
moderner
modest
moeg@@
monsoon
motivi@@
mou@@
mrt
multipli@@
muti@@
mysteries
mör@@
nehmt
neuem
ngo
node
nonverb@@
norms
notwendigen
nur@@
nurture
nut
nutri@@
oben@@
occasi@@
officials
offspring
olly
onnen
ordentlich
organisi@@
ough
paaren
pande@@
parade
paraly@@
participating
partner@@
pedi@@
perspectives
phosphor@@
pianist
pinguin
pinn@@
plac@@
planting
plug@@
polymer
portable
portra@@
practically
prece@@
predicting
preisen
pressures
programms
promoting
propulsion
quallen
quantitative
quarks
quietly
rabbits
rainforests
raketen@@
reak@@
rechtzeitig
redak@@
redwoods
refriger@@
regenerative
register
regulierung
reichte
relativity
render
repertoire
replacing
responding
rises
robin
rot@@
russischen
saddam
sagst
salary
samm@@
sargas@@
scharf
schauspiel@@
scheiben
schick@@
schiffen
schlauch
schleu@@
schlossen
schläft
schmu@@
schum@@
schwä@@
schär@@
scot@@
secondary
serotonin
sexu@@
shaw
sia
sili@@
sitzung
skeptisch
smar@@
so-@@
sooner
sopa
specialists
specu@@
spheres
spiele@@
sponsor
stac@@
statements
statistisch
stefan
steller
stimmten
strat@@
strateg@@
strömen
stur@@
stür
submit
superman
supportive
supports
synchr@@
synthese
synthetische
sätzen
söhne
südamerika
tagging
tahrir
tarahumara
tasmanian
taxi@@
tch
temporal
tenth
thumb
ticul@@
tivity
tops
toss
towel
trek
trilli@@
tromm@@
träum@@
tsam
tzung
tödlichen
ultimative
umfassende
unded
unglaub@@
ungsprogramm
unterdrücken
unternommen
untersuchte
upward
usc
velocity
verlangsamen
vermeer
vermischt
vermö@@
versuch@@
verun@@
vic@@
victory
vis
vo
vorgeschlagen
vorhaben
vorherigen
voters
völkermord
wahrzunehmen
waisen@@
wan
weekend
wegzu@@
wehr
weisst
wende
wille
wiped
witz@@
wochenende
wohnt
wählte
wün@@
zehntel
zeichen@@
zeile
zerbrech@@
zhou
zittern
zufolge
zunahme
zusammenbringen
zusammenspiel
zusammenzubringen
zustande
zwei-@@
ó@@
überaus
überwältigt
1,3
1.2
11th
14-@@
170
1979
197@@
1980ern
300,000
40s
7.
80,000
81
@
a.
abc
abfall@@
aby@@
accountable
accounting
accumulate
aches
acious
ada
adaptive
aded
aden@@
aks
alexandria
ana@@
anek@@
angefertigt
angreifen
anim@@
ank
anrufe
antworteten
appreciated
arktis
arktischen
arma@@
arrange
arro@@
aspi@@
assoziiert
astronomical
ativ
attach
aufgaben@@
aufgefallen
aufgegeben
auftauchte
ausdrück@@
ausgelöscht
ausgestorben
auslöst
ausschalten
axes
ballast
barrels
basement
basierten
batman
bay@@
begangen
beginnend
begraben
bekämpfung
beloved
beratung
berufe
bery
beschrei@@
beschrän@@
beside
besor@@
besorgen
besucher
betrachtete
betriebs@@
beugen
beur@@
bevor@@
beweis@@
beängstigend
bibli@@
bildete
bio
biologischer
biotechnology
blind@@
blindheit
bloody
bollywood
bosnia
bottom-up
breakdown
breed
brennstoffen
bring@@
broadcast
brä@@
bullet
bös@@
calculating
cali@@
carbon@@
cared
celebration
checking
chemo@@
chickens
chor@@
circular
circulation
ckets
clar@@
clean@@
climbers
clin@@
colom@@
commodities
compound
compounds
constitution
cost-@@
cracked
crash@@
cybercriminals
dak@@
dark@@
datum
ddy
dead@@
demanding
demut
deplo@@
derived
diff@@
differ@@
digit@@
disabilities
discussions
disk
dissi@@
divine
do-@@
doppelte
dorf@@
doub@@
drahtlose
drastisch
dreamed
drängen
duc@@
duke
easiest
eder
eig@@
eigung
einfühlungsvermögen
eini@@
einsparungen
einverstanden
electromagnetic
embodied
emerges
emmanuel
empfindlich
emphasize
empiri@@
encountered
engel
engli@@
enlightenment
enriquez
enthi@@
entlassen
entsetz@@
entwürfe
environmentally
epilep@@
erdbe@@
erdn@@
erfolgreich@@
erholen
erkläre
erleuchtung
erreichten
erwachsener
erweiterte
etary
evident
evo@@
examine
externe
extremes
fallschirm
farmen
faszinierenden
fax
fehlern
fehlte
feminist
finishing
firmen@@
fixiert
float
fortgeschritt@@
fossilien
freezing
frequent
frustrating
fußball@@
führern
fürchter@@
gebra@@
geduld
geistige
gelö@@
gendste
gendsten
generic
geniale
geringen
geschlossenen
geschwister
gesün@@
gically
giga@@
gigantic
gla@@
glau@@
globalized
graduates
greifenden
grim
grönland
guilt
ha-@@
halter
happiest
haushalts@@
hay@@
heights
heili@@
hein@@
herauskommt
herrn
herunterladen
hervorra@@
hinterfragen
hippo@@
hirns
his@@
historian
hive
hochzeit
hunger@@
hühner
iden@@
ikea
imed
impfung
implic@@
inher@@
inier@@
inputs
inte@@
integra@@
intend
interessiere
interrupted
intrinsic
ira
iron@@
isoli@@
istanbul
jack@@
jaw
jessica
jor@@
juggling
jungle
jüngsten
kanzi
karikatur
kenntnisse
kisten
klagen
klarheit
klavier@@
klären
knees
kollektive
komplizier@@
kongress@@
konkurrieren
kontinenten
kontrollierte
konz@@
konzerne
konzert
kosmischen
kostete
krankenschwester
kratie
krimin@@
ktiv@@
ktor@@
kurzweil
künstliches
lane
lations@@
lauten
lays
leichte
lesterland
lethal
leton
leuchten@@
limit@@
lizenz
loans
locking
louder
manu@@
manufacture
manufacturers
marco
marshall
mathematica
mechanische
mem
memorial
meth@@
mexi@@
mild
mineralien
minü@@
misch
misery
monday
mord
moreover
mov@@
mr
müttern
nachbar
navy
negroponte
nem
neter
netra
neys
ninth
normen
notfall@@
notions
notizen
nun@@
o.@@
oakland
occupied
offiziell
ography
onale
onen@@
optische
organischen
orientierung
ostafrika
ostküste
oven
p.
parasiten
pastor
peer-to-peer
pfa@@
philanthropie
portal
pos
pr
precision
pregnancy
prescri@@
produk@@
professoren
punch
purch@@
purchase
purely
pursuing
quantifi@@
quet@@
rechenschaft
refined
refugees
regnet
reine
reviews
riesenha@@
ringe
ronald
sad@@
samuel
satisfied
satz@@
sauer
sav@@
scheme
schießt
schme@@
schub
schuh
schwangerschaft
schweben
screaming
scripts
search@@
seasons
sehn@@
seller
sells
seltene
shirky
shower
signatur
silber@@
sinnen
sity
skeptical
skiz@@
skri@@
soldat
sonderlich
sowje@@
spielern
splan@@
sponsor@@
squared
stake
stamp
stati@@
statistically
stealing
stellige
stent
sterbe@@
sterblichkeitsrate
sterile
sternen@@
stimulus
strahl
strato@@
streckt
strich
stringtheorie
studios
stößt
subjective
substantial
sudhir
swee@@
symbolic
syrien
szenen
südlichen
tageslicht
takti@@
tanten
tates
terien
thereby
tick
tiefsee
tionary
tionist
tivität
tization
todesfälle
tories
tox@@
transported
traten
tribal
träge
two-dimensional
tätigkeiten
tödlich
töteten
ukra@@
umfragen
umgeht
umgibt
unbeha@@
unfähig
ungsa@@
universelle
unterdrück@@
unterschieden
uss@@
utter
valu@@
variablen
veranstal@@
verbrannt
verlegen
vermark@@
vernetzt
vers@@
versammeln
versammlung
verschwendet
verstär@@
verursachte
verwalten
verwandelte
vision@@
vorgeht
vorträgen
wach
wache
wales
wanderung
warfen
warn@@
warnung
warrior
waste@@
webs
weibo
weis@@
wendepunkt
whistle
wiederauf@@
wiederzu@@
wished
wohlergehen
wonderfully
wundern
wurf
wäl@@
xy
zac@@
zeichne
zenz
zimmern
zon@@
zuallererst
zusammenzuarbeiten
äf@@
ärztin
äußere
öffnung
ökologische
örtliche
überholt
überla@@
überleben@@
00
1965
360
6,@@
66
68
71
abgele@@
abilität
ables
abschneiden
acle
action@@
acute
admini@@
adrenal@@
agre@@
ahmen
akademischen
alar@@
allen@@
alliance
alp@@
alties
altmo@@
ameisen@@
andal
andre@@
anfälli@@
anfällig
angeben
angegriffen
animationen
anleitung
antrie@@
anxious
appropriately
arabien
arable
arb@@
arise
ark
arkti@@
arose
artikeln
ashamed
assure
atheists
atmet
attempts
atz@@
aufgeteilt
aufregung
aufwachen
aufwachsen
ausbilden
ausgerichtet
ausschau
ausserhalb
autop@@
av@@
awake
babylon
backed
barri@@
bb
bedenkt
bedeutenden
beetles
befasst
begrenzten
belegen
belegt
belä@@
beruhigen
bestechung
beteiligung
betrachter
bevölk@@
bewertungen
biased
bildeten
biologically
blast
bless
blöcke
bosnien
boson
brea@@
bronze
bruch@@
brüdern
bte
bten
buck@@
busch
carbon-@@
check@@
checks
chende
cheryl
chri@@
chromosom
clarity
cohen
coined
collaborate
collaborator
comparable
confined
controversy
countryside
crab
cracy
cris@@
crum@@
culturally
dach@@
dank@@
daumen
davis
dder
deca@@
defeat
deficit
defines
deliber@@
delicate
demokratien
dening
depressiv
deta@@
deter
developmental
diaspora
digi@@
digitales
dil@@
dimensionalen
direkten
disgusting
dote
drittes
dste
dumm@@
earned
edited
egoi@@
eing
eingriff
einhundert
ekel@@
elbow
elders
elevator
elli
ellip@@
elternteil
endless
engen
enters
enthusiasm
entities
entrance
entwickl@@
enzyklopädie
equipped
eradicate
eradication
ereignissen
erendes
erfassung
erforsch@@
erwar@@
erzogen
ethische
ethni@@
evol@@
explores
extrover@@
exxon
fahrts@@
fame
fear@@
feed@@
fellows
fibonacci
fighters
finite
fisches
flan@@
folglich
fonds
for-@@
fortfahren
fot@@
foun@@
franzö@@
freundes
freut
fum@@
func@@
funeral
funktions@@
fuzzy
fäll@@
fühl@@
fühlst
gabriel
galerien
gangen
gast@@
gebro@@
gebt
geburt@@
geek
gefährlichen
gegenseitige
gehende
gehä@@
gehörte
gelei@@
genuine
germs
gesetzte
gespr@@
gesteckt
gesundes
gewebes
gewohn@@
ghet@@
gian
giftigen
gipf@@
gleicht
grass@@
grauen
grocery
grünes
guer@@
guidance
hamp@@
handwerk@@
harlem
harn@@
hass
heated
heavens
herzkrankheiten
hie@@
highways
hin-
hing@@
hinzugefügt
homini@@
honesty
hop
hose
hump@@
hunters
hussein
hyperbo@@
häuft
höherer
höhlen@@
hübsch
ideological
ihu@@
ila
iming
immuni@@
imper@@
imperi@@
ingenuity
inherently
innern
inspirierte
interessan@@
investigate
involving
iphones
irren
ite
jahrhunderten
jokes
kahn
kara@@
karikaturen
kathedrale
kationen
kies
kilos
kompletten
kompli@@
kompromiss
konkurri@@
kontin@@
konzentrierten
kran@@
kredit
kriterien
ktions@@
kunden@@
kurzfri@@
künstlerische
lade
landwirtschaftlichen
laufenden
lebendige
leicht@@
leidenschaften
libraries
lich-@@
lippen
live@@
lobby@@
longest
luf@@
m.@@
magi@@
magischen
mail@@
mais@@
maje@@
malerei
mammography
managing
mantra
maske
matches
maten
medizinischer
messen@@
milchstraße
mill
millennia
mittlere
mmern
morally
museen
musikstück
myo@@
mythen
myzel
münze
nega@@
negoti@@
negotiating
nerd
neurowissenschaftler
news@@
ng
nigen
nischen
noisy
norway
notaufnahme
nst
nummern
nurturing
obsolete
obstacle
ographic
ohio
onic
operations@@
oprah
optimieren
orchest@@
orgasm
ories
orthop@@
osteuropa
ota
other@@
outdoor
palästina
papiere
parasite
passten
patience
personalities
pferde
pfleger
pfte
pher@@
photographers
photoshop
pilots
pingu@@
pipa
planetar@@
plas@@
plänen
poll
pools
por
posten
posters
ppers
prei@@
prior@@
prisons
präsent
puppe@@
pyrami@@
qaeda
qualified
qualitäten
qualle
quantities
r-@@
radikal@@
raises
random@@
rar@@
rasen
reaktoren
real-time
recognizes
redefine
reduces
redund@@
reflects
reflektiert
reforms
reichlich
reinventing
reist
reka
rekru@@
releases
religiös
rendering
repeatedly
representing
resistent
responsibilities
ressing
returns
rewar@@
rid@@
ries@@
ringen
rollt
rowed
ruhen
rätsel@@
sadness
saison
sas@@
satelli@@
satur@@
scape
schach@@
schiff@@
schin@@
schlauer
schnellste
schoss
schre@@
schuh@@
schulbildung
schätz@@
schöpfen
schüchtern
schützer
schützt
scotland
screen@@
screens
scul@@
secre@@
sehvermögen
sexuellen
shipped
sighted
slip
slowing
snakes
soccer
software@@
sorten
speeds
spektrums
spinnen@@
squeeze
ssen@@
stance
stapeln
stau
steady
steri@@
stetig
stigmati@@
stimu@@
stimulate
strangely
strä@@
styro@@
stämmen
suff@@
sutherland
sweise
säuge@@
tained
technologischen
terie
teter
teur
thood
tierung
tips
titelseite
tory
traditionally
transcend
transpar@@
trap
trost
umstri@@
umzuwandeln
unausweich@@
universitäts@@
unterhal@@
unternehmern
unterscheidung
upright
usda
use@@
utility
vacation
verbundenen
verg@@
verlangsamt
verließen
vernetzen
verschle@@
verstümm@@
verteidigen
vieh
viewed
virtue
vivid
volkes
voraussetzung
vorbereiten
vordergrund
vorgehen
vorgänge
vorherzusagen
vorstell@@
voyage
vre
vul@@
waited
wassers
weihnachten
weitem
weitergeben
weitgehend
wendet
wesent@@
weswegen
wettbewerbs@@
wheel@@
wien
wirbel
wohltätigkeit
wonders
workshops
world-@@
wrest@@
wähler@@
währenddessen
yl
yment
zaun
zeremonie
zigar@@
zitieren
zität
zivilgesellschaft
ägypter
ähneln
ähnlichkeit
äl@@
äthiop@@
äufe
öffentliches
übereinstimmen
überprü@@
überraschenden
‟
150.000
1947
5,@@
5.
51
750
8,@@
8.000
abnehmen
accomplish
acker@@
admit@@
af
agi@@
agrees
aktionen
alert
alhambra
alistischen
altar
amer
anfall
angels
angemessen@@
angenehme
anschließen
ansteckend
antikörper
antwor@@
antwortet
anwäl@@
ap
appliances
aquatic
arrest
asphalt
attraction
attribu@@
auffor@@
aufzeichnen
aurora
auskommen
austral@@
bahnbrechende
basket
bass
beatles
bedürfnissen
beer@@
befehle
befru@@
begrenzung
begründet
beharr@@
bemerk@@
bemerkten
bench
bender
bending
beneficial
bens@@
beobachteten
berichtete
beruflich
beschränkungen
besprechen
beverly
bewegten
biases
bien@@
bihar
biologi@@
bioluminescence
biotechnologie
blockieren
blogo@@
bonnie
boost
booten
bruno
bump
buses
bär
bär@@
bündel
cad@@
cairo
calculator
camels
cate
cel@@
cellphone
certified
chaotic
characteristic
checked
chen-@@
chro@@
chunk
cigarette
circuitry
clapping
clark
cling
close@@
cockro@@
combining
commissioned
competi@@
composer
conception
conducting
confir@@
confli@@
confron@@
conservatives
cooperate
cp
cradle
curator
damali@@
daylight
declining
def@@
dep@@
deple@@
depths
dered
deter@@
devo@@
digkeit
disappearing
disches
disruptive
disson@@
divorce
dney
dominiert
donation
donors
dreaming
dt
earning
editors
einblicke
einhalb
einklang
einkommens
eintausend
eline
emotion@@
empfehlen
employed
employment
encing
end-@@
engel@@
enhance
enthüllt
envelope
erkenne
erkennung
errungenschaften
ersatz
erschwing@@
ertem
erträge
erwachsenen@@
erwarteten
esst
evaluate
exagger@@
excess
exper@@
explanations
explorers
expose
exquisite
exu@@
eye-@@
falcon
farben@@
fibro@@
flexibel
fliegenden
flourish
folk
forder@@
foren@@
frac@@
fresser
freundlichkeit
fuss@@
fö@@
fünfte
gaza
geben@@
gefäl@@
geheimnis@@
gehenden
geldes
gentle
georgetown
gerade@@
geschenkt
geschi@@
geschichtenerzähler
geschlafen
geschlecht@@
geschäftswelt
gesi@@
gewöhnen
gewün@@
gi
gilbert
glenn
glied
glänz@@
glücks@@
goodness
gosh
gosla@@
gould
governmental
grassroots
gravitational
greeks
greifbar
grenzen@@
grou@@
grundsätze
gründet
gründung
gurt
guta@@
haftigkeit
hatred
hauen
heilmittel
helpless
hende
heres
hervorheben
highschool
hinauf@@
hinsehen
hinteren
hipp@@
holiday
holland
honig
hooked
hotter
humili@@
hysi@@
ideology
ignorance
illnesses
immen@@
impaired
impfen
implanted
impressed
incidentally
infinitely
influences
infrared
inierte
inne
instab@@
installiert
instances
instruc@@
intelligentes
intern@@
intervene
intrin@@
iq@@
ises
israelis
jacques
jo-@@
kabul
kenden
kerne
kerry
kleid
klässler
knei@@
knock
knö@@
koch
kompliziertes
konfli@@
konkre@@
kontinente
korallen@@
korallenriffe
kos@@
krieg@@
kse
kunstwerk
künfte
kürze@@
laboratories
ladder
langle@@
laser@@
last@@
latte
laufbahn
laure@@
lebensweise
left-@@
lei
lenses
liberals
lieb
light-@@
lik@@
limitation
liqui@@
lol
low@@
lung@@
macro@@
magneten
maitreya
malig@@
malnutrition
malt
mana@@
manchester
manipuliert
marketing@@
marvelous
maxim@@
meadow
mechanischen
menu
metalle
method@@
midst
mikr@@
milliar@@
mini-@@
misch@@
misstr@@
mit-@@
mittag
mität
modell@@
modified
mons
motiva@@
mouths
mte
musikal@@
mythology
nachahmen
nachkommen
nails
navigation
negatives
netzen
nodes
noma@@
non
nonviolent
nordameri@@
northwest
norwegen
notiz@@
notwendigerweise
novelty
novogratz
nuclei
nuklear@@
numerous
nützliches
obersten
ofen
offener
okap@@
olith@@
olive
oly@@
omed
one-on-one
op-@@
open-source-@@
opera@@
operator
optimist
optimize
orientation
orientierten
owe
oxide
packte
painter
pancreatic
paper@@
paradies
paradise
partnerschaften
pathie
peru
phan@@
phtal@@
physiology
pill@@
pione@@
pollutants
poss@@
potato
principal
problematic
projections
prothesen
prozessor
pubertät
publikums
py
pyth@@
quiz
racing
rating
rauszu@@
reads
reali@@
rechnungen
recyc@@
redesign
refused
regenerate
registered
reichsten
reiz@@
relax@@
remembering
reviewed
revolutionen
riskieren
roles
rowing
russen
rädern
rückenmark
sailing
sandwiches
sauberes
scar@@
scat@@
schlan@@
schlussfolgerung
schmuck
schockiert
schrif@@
schwa@@
schwach@@
schwam@@
schwim@@
schwäch@@
schwäche
schwächen
schön@@
sculp@@
sediment
seitige
selbstvertrauen
seni@@
sequenced
serviert
settle
settled
seven-@@
sexper@@
sexual@@
shal@@
sheer
shir@@
shire
shuff@@
siehe
sig
simpel
singers
sis@@
sk
south@@
sovereig@@
spanne
spannende
speisen
spektro@@
spends
spielzeuge
spike
spirituellen
sprozess
spü@@
spürte
stacheln
stadien
starr@@
starvation
statisti@@
ster-@@
steu@@
stickstoff@@
stockwerke
strassen
stressed
strieren
strukturi@@
stud@@
stundenlang
sturz
stöcke
stückchen
stürme
stützen
suitcase
surplus
sustained
swedish
syner@@
syria
tabelle
tad@@
tant
tastes
tchen
tches
technologie@@
teleskope
tenden@@
teppiche
terence
terweise
thal@@
thanksgiving
theor@@
thful
thu@@
tinkering
tivem
ton-@@
tora@@
tos@@
totale
transistors
trauer
traum@@
triceratops
trivi@@
tsch
tural
twenty
tyran@@
täuscht
ueber@@
uli@@
umdrehen
unen
ungewöhn@@
unglaublicher
ungser@@
unken
uno
unsicher
unstable
unterbrechen
unterhaltungs@@
update
upgrade
vage
valve
varianten
veil
verantwort@@
verbrachten
verbrau@@
verbringe
vereinbarung
vereinigung
vergröß@@
verhandeln
verkaufs@@
verleger
verli@@
verlor@@
verlu@@
vermehren
vermischen
vernünftige
verrückter
verschlüssel@@
versicherungs@@
verstop@@
vertierte
verwirk@@
video-@@
vielfäl@@
viereinhalb
vil@@
voluntary
vor-@@
vorberei@@
vorschläge
votes
w.
wack@@
wahlmöglichkeiten
wahrneh@@
wall@@
wandert
wanderte
weak@@
whist@@
wi-fi
widersprüch@@
wiederbele@@
wiki@@
wirkungs@@
wounded
wunderbarer
wus@@
wußte
xe
yle
zapfen
zeilen
zeitungs@@
zoll@@
zugegeben
zunimmt
zurückbringen
zusammengesetzt
zusammensetzen
zusamment@@
zwe@@
zweier
ägyp@@
í@@
ökonom@@
öst@@
überraschen
00s
1.3
15,000
2.5
60-@@
a.m.
abend@@
abhandlung
abroad
abweichung
accelerated
accenture
accor@@
achte
achtet
advocate
affe@@
ais@@
akademiker
aktiver
albern
alg@@
alia
alley
alongside
alterna@@
amerikanern
amino
anblick
ando
angst@@
anima@@
anischer
ann@@
annt
ansteigen
antibodies
apparatus
applies
argued
armuts@@
arran@@
asis
astron@@
at-@@
atlan@@
atrazin
atten
aufbaut
auffälli@@
aufgeb@@
aufgezogen
auflösen
aufpassen
aufstand
ausgeführt
ausland@@
ausser
aussicht
australian
auswahlmöglichkeiten
authenti@@
automaten
automobiles
auton@@
autonom@@
außerirdische
bakterien@@
ballet
band-@@
baumkr@@
beam@@
beans
begegnet
begrüßen
beiträge
bekommst
belü@@
bemerkenswerten
benötigten
besaßen
besiegen
betreuung
betritt
betrogen
bewerben
bewusster
bezahlung
bezieh@@
bezir@@
bili@@
black-@@
blues
blätter@@
borough
brem@@
brokkoli
bron@@
budd@@
butter
bühnen@@
candle
car-sharing
cardiac
caregi@@
caribbean
cartoonist
catastrophe
cative
centered
centimeter
chad
charlotte
charming
chend
chess
chi
chinesisches
christus
chu@@
cket
clari@@
clou@@
coc@@
cochlear
cockpit
cod
coherent
coincidence
coins
comedian
command@@
commandments
conc@@
conceptual
conscience
consideration
consistently
consists
constrained
contamin@@
continuity
contradiction
conve@@
convi@@
critici@@
cros@@
crow@@
cruise
crun@@
dankbarkeit
darstell@@
decides
dee@@
delivers
demor@@
denjenigen
deprimiert
derzeitigen
dezentr@@
diejenige
digits
dimension@@
disciplinary
distinguish
dokument
dramatische
dreck
drehung
drift
duration
durchge@@
dus
echo
edit
efficiently
egyptians
eignen
eilen
einander@@
eingreifen
einschalten
einwohnern
ela
elektron
elessly
ellen@@
energie-@@
energiever@@
enheit
enkel@@
entfernungen
entinnen
entle@@
entliche
entzün@@
erachtens
erdöl
erheben
eriert
erleiden
erwarte
erziehen
esot@@
ethischen
evelyn
exce@@
exit
export
extending
fahrzeugen
fakultät
feste
fet@@
fetus
ffekt
fie@@
fier@@
finanzkrise
fiscal
fisheries
flock
flusses
focuses
fog
formuliert
fossile
fragments
free-@@
fted
ftet
funde
funken
funktionierende
fußball
fürsorge
galt
gans
gebär@@
gefiel
gefror@@
geheim
gelegte
gemeinsamkeiten
geometr@@
geringe
geschie@@
gesegnet
gesendet
gesinn@@
gesteu@@
gestri@@
gewandt
gewer@@
gewässern
glat@@
glory
goog@@
gratitude
grenzt
griech@@
gros@@
grü@@
gründlich
guatemala
gül@@
hacken
hafen
hair@@
handful
hansen
harmful
hartnäck@@
hasst
hattest
hawai@@
henden
herausge@@
herausstellte
herkommt
herzinfarkt
hilf@@
hillary
hinausgehen
hineinge@@
hint
hohes
honig@@
hopeless
hormon
hunderttausend
hässlich
hüb@@
iceberg
iere
igte
illinois
illusionen
imf
improvise
industrien
injection
inmates
ino@@
integrität
intellektu@@
intri@@
inventors
involvement
ires
irrtum
jag@@
japanische
jazz@@
jen@@
jeweiligen
jose
jour@@
justin
kaffe@@
kalender
kaninchen
katho@@
kaulquapp@@
kehr
keiten
kennengelernt
kid@@
kie@@
kilogramm
kim@@
kissen
klam@@
klebt
kleider@@
klettert
knöpfe
kokain
kombin@@
kommun@@
kommunikation@@
kontroverse
korre@@
krank@@
kriminellen
kulturell
käfig
körpersprache
kühlung
kürzer
la-@@
lag@@
langem
lassung
lasts
laugh@@
lebensdauer
leidenschaftlich
lest
leugnen
ley@@
leys
lick@@
linear@@
lischen
listen@@
literal
lob@@
lobe
luden
längst
läufe
machbar
magische
mathe@@
mcdon@@
mega-@@
menschlichem
metal@@
metrics
migraine
migräne
mills
minded
minderheit
minnesota
missionen
mitochondri@@
mming
modes
monthly
motive
mountain@@
mrs.
mum
mungs@@
mutual
mysterium
myths
mäßigen
mücken
nahrungskette
naturwissenschaften
nazis
nectar
netflix
netzhaut
neuroscientist
newton@@
nex@@
non-lethal
noten@@
nördlichen
o.
offshore
omy
onie
onists
ons@@
operiert
opposition
orch@@
organen
ounce
p.@@
pack@@
palestine
parab@@
patrick
pav@@
peng
persönlichkeiten
phar@@
physiologie
pipelines
pisa
platz@@
plau@@
pleas@@
plic@@
plün@@
popcorn
pops
positiver
post-conflict
prag@@
pragmatic
prising
professionellen
progr@@
projektion
protesti@@
pst
psychiatr@@
psychologischen
psychopath@@
pts
publication
puppen
qua@@
quantenmechanik
questioning
rainfall
ram@@
randomness
rechenleistung
recon@@
recycle
referred
refor@@
regelmäß@@
rendered
resem@@
resolved
retreat
revealing
revolutionary
rho@@
rides
riots
rockett
romance
routin@@
ruhi@@
satisfying
saurier
scanned
schema
schlachten
schlafzimmer
schlamm
schlepp@@
schock@@
schreckliches
schrei
schwierig@@
schütt@@
schütter@@
sebene
selbster@@
seltsames
sem
semi@@
sequenzierung
seymour
shuttle
sigen
situ@@
skilled
slept
smartphones
smus
sofa
spartner
spazieren
specialist
spect
speicher@@
spills
splashy
spontan@@
spreng@@
sprobleme
sst
standpoint
staunen
steigen@@
steigenden
stereo
stering
stich
stickstoff
stif@@
stil@@
stimmi@@
stimuliert
stipendium
stren@@
strengths
subsidi@@
suburban
successes
summary
supermassive
surroundings
suspended
swar@@
swing
synapse
synthesizer
sänger
tasse
tauchten
techno@@
tedwomen
tera
tern@@
theirs
ticals
tierarten
tightly
tigte
tner
tofu
toler@@
tortured
toxins
tracked
trance
transfor@@
traumatic
trocken
ttered
tums
tweets
twins
typing
täts@@
täuschungen
ug@@
ula
umsatz
unab@@
unan@@
ungeachtet
ungleichgewicht
unschul@@
unzählige
urbane
ursprünge
usi@@
uter@@
valid
vents
verband
verdun@@
verläss@@
vernetzten
vernunft
verpackung
verschwenden
verstorbenen
vest@@
vibrating
vibri@@
victoria
videospiel
volcanic
vollste
vorlieben
vt
wal-mart
wash@@
wax
wech@@
wee@@
wehren
weitergehen
weitrei@@
weißer
werben
werkstatt
wertige
white@@
wickelt
willkür@@
windenergie
wirtschaftliches
wohnwagen
worthwhile
wre@@
writes
wy@@
wähler
wöch@@
xen@@
xes
yn
zahlen@@
zauber
zerstörer@@
zerstörte
ziegen
zugelassen
zurei@@
án
älen
änden
äter
è@@
öffent@@
übel
überschreiten
‚
-in-law
-system
1,2
1500
16-@@
250,000
365
400.000
88
abgesch@@
abhängen
ablaufen
abschied
absur@@
abwärts
accommo@@
accompli@@
addicted
aggressi@@
aggression
agno@@
akteur
akteure
alligator
andauernd
angeb@@
angelangt
angerufen
angezeigt
anonym
anschaue
anschluss
anti
antike
anytime
anzieh@@
appe@@
applause
approval
archet@@
archy
areal
arian
arithmetic
arly
arrows
art@@
assistant
asto@@
ati@@
ativen
atombombe
atori@@
atrazine
attempted
attend
attraktiv
attribute
attributes
aufwärts
aufzuhören
ausbreitet
auseinandersetzung
ausgang
ausgeschlossen
authentizität
autonomie
außensei@@
außergewöhnliches
bade@@
bakteri@@
bamboo
banned
barem
barriere
battle@@
beabsichti@@
bearbeitung
beau
beauftragt
bedien@@
befestigen
befra@@
befrei@@
befreiung
befrie@@
begeg@@
behindert
beit
belohnen
bemüht
benef@@
bereitete
beschäf@@
beste@@
bestellen
bestimmter
bestimmung
betracht@@
betten
bevölker@@
bevölkerungswachstum
bewege
bewundern
bezahlte
biolumines@@
biomimicry
blink
blocked
blows
blur@@
blutgefäße
bmi
boten
breakthroughs
brillante
bräuchten
bucket
budapest
bump@@
bumps
casey
cele@@
checkliste
cherin
chtert
ci
cl
cleveland
co2-emissionen
collar
colleges
commun@@
compatible
competitors
comprehen@@
conclusions
conditioning
consi@@
constit@@
contagious
contents
contest
continually
contradi@@
coordinate
cow@@
creators
crowds
crushed
cues
d-up
dah
dam
darwinian
datei
degradation
dehnt
delighted
demographics
denmark
dennett
deploy
derte
derzeitige
desertification
desig@@
desires
developments
dged
diabe@@
digitaler
directed
displaced
diver
dka
dler
documenting
dokumentar@@
doodling
drachen
drake
drehten
dreieck
drück@@
dug
dump
dumped
dune
durchdringen
dwar@@
dynamischen
dämp@@
dünger
eco-@@
eding
edison
edith
educating
effektive
ego@@
ehrlichkeit
eindrucks@@
eingang
einheit@@
eintritt
elec@@
elefant
elektrisches
elementen
elvis
embassy
emission
emma
employ
employee
empowerment
enabling
ende@@
endem
ening
environment@@
enzy@@
epi@@
equator
erfanden
erfolgsgeschichte
erfreut
erik
erlebnisse
ermu@@
ernest
ernsthaf@@
errei@@
erstellten
ersti@@
erwartung
erwerben
establishment
esther
ethisch
ethnischen
existenti@@
explosionen
face-@@
falken
fasz@@
fertiggestellt
fertigung
fertility
fertilizer
festgelegt
fieber
fies
findung
fitting
flachen
fle
flexibility
floors
flüssen
flüssig
foam
fool
fos
fotogra@@
fraser
fred
freeze
frisst
früherkennung
fulfilling
funden
furcht
fusi@@
fähiger
fötus
fügte
fünfzig
fürchte
g.
gaga
gallons
galvao
gebete
geborene
gedruck@@
gefördert
geg@@
gegenüberstehen
gehoben
gehor@@
gekostet
gelagert
geliebt
geliebten
geliefert
genannte
generi@@
genuss
genü@@
gerichts@@
gesamtheit
geschahen
gewiss
gheit
ghtest
gin
glaciers
glamour@@
gleichermaßen
glicher
gliches
glow
glucose
goats
good@@
gphin
grabs
greg@@
greifen@@
griechischen
grief
grip
guar@@
guckt
h5n1
hack
haha
handgelenk
handvoll
hannah
harness
harv@@
harvesting
head-tail-@@
heiratete
heiß@@
hellen
hence
hens@@
herbie
hers
herumlaufen
hervorzubringen
herzens
herzleiden
hh@@
hi-@@
highl@@
hinder@@
hineinzu@@
hingabe
histori@@
hoffnungslos
hopkins
hormon@@
hour@@
hunde@@
hurri@@
hydra@@
häufigste
höch@@
hörer
icy
ideologie
igt
illegale
ima
imitiert
imple@@
independently
individuell
iner@@
infer@@
infr@@
ingenious
ingt
inherent
inji@@
injustice
innovativen
interaktive
intimität
intricate
invitation
inwie@@
irak@@
irre
irrever@@
irrigation
ischerweise
ised
isse
ist@@
iten
j.@@
jabbar
jahreszeiten
jahrhunder@@
jesse
jets
journali@@
judges
justify
jüdische
jüdischen
jün@@
kataly@@
kell@@
keram@@
kles
klugen
knocked
know@@
knü@@
komman@@
kommende
kommerzielle
konservative
konservativen
konsi@@
konstant
koopera@@
kooperieren
kopfschmerzen
kranken
krisen
kritisch
kuba
kuli@@
kultureller
kw@@
kämen
kümmerte
laborat@@
labors
lachten
larvae
latr@@
launching
laundry
lean@@
legos
lehrer@@
lette
lider
lierten
liger
lightning
limbs
lining
linksliber@@
lis
lled
londoner
loslassen
low-income
low-tech
lux
lyn@@
lynn
lyri@@
löste
macy
madison
maintaining
maj@@
makro@@
martha
maslow
massiv
mastery
matching
math@@
matri@@
matte
medications
meistern
mem@@
menden
mer-@@
merkwürdige
metaboli@@
metabolic
ministers
modelli@@
monument
mosk@@
mubarak
multi-touch
multiverse
muni@@
muse@@
mustache
mustard
mächtiger
mäßige
möbel@@
nai@@
nation-@@
nazi
netzwerk@@
neu-@@
nicely
nier
nightmare
nings
nische
nom@@
nord-@@
nordo@@
nuan@@
nötigen
obli@@
observer
occupation
odysseus
offenbart
offenbarung
offensicht@@
ogen@@
ologin
operieren
orable
orgasmus
orts@@
otte
packaging
parap@@
parked
parken
partial
passiv
patter@@
pazi@@
peaks
pedestri@@
pediatri@@
penetr@@
pepper
pfe@@
pfeil
pfeiler
phantom-@@
phil
pilzen
plur@@
plätzen
po
poets
policing
poorer
posts
pressing
pristine
producer
produzent
produzier@@
programmer
progressive
proji@@
proportion@@
proteinen
protozelle
provinz
prozessen
präz@@
ps@@
puri@@
quadra@@
quarti@@
question@@
quir@@
rahmen@@
rail
rasi@@
raumschiff
reactors
realisiert
realities
reasonably
recep@@
recher@@
recherche
recipi@@
recipro@@
recovered
reflexi@@
reichhal@@
reinigen
reinvent
relates
relax
reporters
repres@@
rescued
ression
restau@@
retin@@
retired
rett@@
rezep@@
rhex
richtiger
right-@@
rissen
robicsek
roboters
romantik
rotating
rufus
rup@@
russians
scarce
scare
schadstoffe
schauspielerin
schmer@@
schockier@@
school-@@
schooling
schoß
schwarm
schwerpunkt
schwieriges
schwin@@
schwingen
schöpfer
schüsse
scop@@
scream
screw
scru@@
searches
selbständig
self-organizing
serra
sham@@
shaping
share@@
sheila
shrink
sidewalk
sieh
sier@@
signing
sischen
skam@@
sketches
skies
slave
slight
sman
smi@@
sonntag
sor
spades
spam
spanisch
spektakul@@
spenden@@
sperren
spiegeln
spine
spite
spitzen@@
spontaneously
sporen
sprechend
sprechenden
springs
spritze
squee@@
stange
state-of-the-art
stepping
stere@@
stero@@
sticky
stiger
stocks
stress@@
strips
struc@@
stuart
studentin
ständigkeit
submitted
supernova
survivors
sustaining
synesthesia
szenarien
südafri@@
süße
tability
tality
tante
tata
tationen
tbp
tching
tech-@@
technologischer
telefonen
teln
terr@@
theater@@
theatre
theft
thermo@@
thouse
tium
tolerant
toll@@
torial
traditionell
trait
trank
transa@@
transistoren
transmitted
treaty
treibung
tremendously
tres@@
tress
troy
tsche
tust
typischerweise
typo@@
ulose
ultravio@@
umar@@
umfangrei@@
unbeabsichti@@
unemployment
unglück
unified
unintended
unterhalts@@
usable
usage
vals
valued
vani@@
varieties
verabschieden
verborgen
verbün@@
vere
vereinfachen
vergewal@@
vergleiche
verkauf@@
verkörpert
verlegt
verlorene
vernetz@@
verschie@@
verschwen@@
vertikale
verwickelt
veröffentlichung
vieh@@
violin
visceral
visitors
volt
vorbeu@@
vorhan@@
vorlesungen
vorräte
vorsorge
völker@@
wahrer
wahres
wahrhaft
wahrsten
wandels
warte@@
warteten
watches
weiterentwicklung
welch
werkzeug@@
westküste
widerstehen
widespread
win-win
winners
wissenschaftliches
wochen@@
worries
wärts@@
würdigkeit
yang
ystem
zehnmal
zeln
zenten
zep@@
zufällige
zuhört
zusagen
zusammensetzung
zuverlässig
zuviel
zweifellos
änge
öls
überwältigend
#
14.
240
25.000
63
67
7-@@
99@@
abalone
abandon
abgeschnitten
abgestimmt
abkürz@@
abschluss@@
abstimmung
abwesenheit
acity
actu@@
addressed
ades
aer@@
aerial
affir@@
aggregate
airbnb
aire
ak-@@
akten
al-qaida
altogether
amateur@@
amateurs
ambiguity
ambulance
amer@@
anbau
ancy
anern
anfänger
anga
angehalten
angel
angenehmer
anhän@@
annoying
anthropologen
antibio@@
antiretrovir@@
anwes@@
anziehungskraft
apologize
apparent
arabisch
argentina
arin
arr@@
arrangement
arten@@
ashed
aspirations
assessment
associ@@
athlete
athletes
ati
ato@@
attachment
auditory
aufenth@@
aufnimmt
aufspüren
auftaucht
ausflug
ausgedacht
ausgeklü@@
ausgesucht
außenwelt
awards
baby-@@
babylon@@
back-@@
balanci@@
balloons
bananas
bankers
beaches
bedingt
bedroh@@
beginnings
behauptungen
beheben
beherrscht
bekanntes
beleuchtet
benutzung
beobachter
berners-lee
beschleunigung
beschränken
besitz@@
bestra@@
betreibt
betriebssystem
betä@@
bewertet
bewertung
biene
bieter
bil
billboard
billigen
bind
bindet
bischen
bißchen
blackberry
blauflossen@@
bleibe
blockiert
bloggers
bloo@@
bloße
blutdruck
boiling
booth
bounce
bour@@
br
brecher
brid@@
brillen
broadway
bruchs
bräuchte
buff@@
bulg@@
bulldo@@
bundesstaat
bypass
cabinet
campaigns
carcin@@
casting
catalog
celebrating
censorship
centigrade
ceram@@
charak@@
charcoal
chari@@
chau@@
chender
cherung
chore@@
cin
cock
cognition
collaborators
commonly
commu@@
communal
compla@@
complaining
comprehensive
configuration
convenience
convul@@
cookie
corn@@
correlated
correspond
corrid@@
counsel@@
cowboy
crawling
cross@@
cuba
cultivate
datensatz
davon@@
day-to-day
dealt
deckte
dee
deen
degraded
delt
dependen@@
derart
derjenige
desaster
developer
developers
dez@@
diagnosti@@
dictionaries
digitalisieren
dirigenten
disconnected
discussed
diskre@@
distorted
distri@@
dividing
dollar@@
donations
dopamin@@
drauf@@
drehe
drinks
drowning
drucks
dschungel
ease
echtzei@@
eigert
eimer
einbezogen
eindring@@
einfangen
eingebracht
eingesperrt
eins-@@
einzuführen
elder
eliminating
emit@@
emotionales
emper@@
empf@@
empfindet
endo@@
ene@@
enrich@@
enthusiasmus
entsprechende
entwicklung@@
envy
epiphany
eradicated
erem
erheb@@
ermordet
erotic
erschwinglich
erschütter@@
essay
etiket@@
evolves
ewigkeit
explode
extra-dimensionen
ezra
fab@@
familienplanung
farm@@
fassten
fast-@@
ferin
fertige
fertili@@
feucht@@
ffe
ffed
fic@@
fills
firmly
flori@@
fluidi@@
fmri
forbid
fortsetzen
fotografierte
fracking
französisch
friend@@
frisch@@
frische
frontal@@
fry
frühere
fs@@
funktionierten
förmig
führungskräfte
füllte
fünf-@@
fünften
gad@@
gamble
garanti@@
garantieren
gase
gating
gedruckt
gedächtnis@@
geese
gefeiert
gefoltert
gefäß
gehörten
geiger
geister
geistigen
genauen
genic
geraden
gesam@@
gestimmt
gewand@@
gewannen
gezahlt
gger
giants
gier
gigab@@
gigantischen
gkeits@@
glatt
glichkeit
gn@@
gorilla
governor
gratis
grosses
grundlegendes
grundstück
gul@@
gupta
gänz@@
gär@@
günstiger
hamlet
handels
hangs
hardy
haustiere
heimlich
helikopter
herab
hervorgebracht
hes@@
hierhin
hilfe@@
hilfsorganisationen
himalaya
hindert
hindi
hinunter@@
hoo
hotel@@
hu
hubschrau@@
hunder@@
hyderabad
höhen@@
hörern
ilen
immernoch
implication
incomplete
individually
indoor
industrialized
informal
ingu@@
inhaf@@
innovators
insel@@
inser@@
intellec@@
intelligen@@
interaktiv
interviewing
intrinsically
introducing
inventing
investigating
iowa
ironically
ironischerweise
isla@@
islamische
isolieren
jacket
jeep
jonglieren
juven@@
jährliche
kameraden
kampfes
kapazitäten
kari@@
kennen@@
kennenlernen
kippen
kleb@@
klebeband
klippe
koff@@
koll@@
kompe@@
konnektivität
kontam@@
korrup@@
kost
kost@@
kramp@@
kreuzung
ktisch
kugel@@
kugeln
kunft
kuri@@
kämpften
kühlschrank
laden@@
lak@@
langlebigkeit
laura
lebensmitteln
legend@@
lements
leon@@
lessness
let@@
leug@@
leum
levin
liebend
likewise
lingu@@
lingui@@
linguistic
locke
locker
logos
lokaler
lotto
lässig
macintosh
magnets
make@@
makeup
manages
mangro@@
manipul@@
marathons
mash
mast
matisch
mato@@
mba
mbi
mediate
mellon
melody
mensch-@@
mentary
merito@@
merkten
met@@
metaphors
michoac@@
mineral
minor
minu@@
misser@@
missouri
mity
mobiltelefon
mold
mortal
mt@@
multitasking
musikalischen
myhrvold
märchen
mühle
nail
nanome@@
nanotechnology
naomi
neanderthal
negotiation
nell
netter
neugierde
notwen@@
nuklearen
nächte
nähert
oberfläch@@
of-the-@@
of@@
oklahoma
oktopus
olymp@@
onk@@
opec
operational
oppon@@
oral
ori
orphanage
oter
out-@@
packing
paleont@@
parameters
partisan
pathogens
pavilion
peac@@
penetrate
penicillin
percep@@
perman@@
perpetu@@
pestizide
pet@@
pflegt
philips
philosophi@@
playground
politik@@
pore
ppel
pps
preservation
preserved
preten@@
preventable
priest
priorität
prizes
problematisch
profitiert
promp@@
protokoll
protozellen
provi@@
province
präch@@
präzision
prüfungen
psychopa@@
pus@@
quat@@
quie@@
r.@@
rabbit
rant
recap@@
rechtfertigen
ref@@
reflective
regenerieren
regulate
reisten
reje@@
reject
rent@@
replicating
replizieren
repräsen@@
respiratory
retail
rhyth@@
richti@@
rigi@@
rigid
risse
rm
rooted
rotation
routinely
ruiniert
rän@@
sages
salman
sammlungen
sati@@
sauberer
saurus
sburg
scharfen
schlechtesten
schleifen
scholars
schon@@
schrittweise
sehnen
seil@@
selbsthilfe@@
seltenen
semester
settlement
seven@@
sexuality
shallow
shells
siberia
sicheres
siv
skip
skrankheiten
skydiving
slowed
snap
snap@@
solidar@@
solltest
son-@@
sonnensystems
sought
sourcing
soviele
space-time
spaltung
spende
sperm
splan
square-@@
squat@@
sque@@
stake@@
stammbaum
startet
stechen
steckten
steig
steigende
steins
stellen@@
stence
sterte
stik
stimuli
stoffwechsel@@
straß@@
strictly
stücks
submer@@
submersible
suburbs
sup@@
surfen
synapses
synästhesie
sz@@
t-shirts
tails
tain@@
tauben
tb
td
tehran
testosterone
teur@@
textile
thread
til
tim@@
tinten@@
tizing
trailer
training@@
trainings@@
translating
treas@@
treffer
trenn@@
triangles
troubled
trunk
trusting
tumor@@
tung@@
tzellen
umkreisen
unbewusst
undergraduate
undeutlich
unerwartet
ungerechtigkeit
unite
unlock
unpredictable
unschuldig
variability
vc
ventil@@
verank@@
veranstaltungen
verban@@
verbergen
verblei@@
verbre@@
verbren@@
verbundenheit
verdanken
vergewaltigung
verkünden
verl@@
verlasse
verleiht
verletzlich
verlieben
vermehr@@
verni@@
verschieden@@
verspreche
versuchung
verte@@
verwal@@
verändernde
videospielen
vietnam@@
virus@@
visuals
volcano
vorbilder
vorstellt
wallet
wandeln
wasting
weal@@
wegnehmen
weinte
weites
werfer
wertes
wertschätzen
wichtig@@
widerstands@@
wiedersehen
winziger
winziges
witzig
wolken@@
world@@
worship
wrin@@
yo-yo
zack
zational
zellen@@
zentri@@
zerbrechen
zigaretten
zufrieden@@
zufügen
zustimmung
zweifel@@
zwingt
zün@@
ächlich
überein@@
überlebenden
übermitteln
überprüft
überschritten
überschwe@@
üpp@@
....
12.
12.000
15.
1800
1858
1908
1929
1966
1970ern
250.000
30er
7.000
8.
abbau
ablehnen
abnahme
absorbed
academics
acquisition
ada@@
adventures
aesthetics
agnostic
aktien@@
aktivist
aktuell
akzent
alltags@@
alltägliche
altos
ambassador
ambiguous
amo@@
analphab@@
analyst
anen
angehöri@@
angola
animate
annimmt
ansehe
anthropolog@@
anticipated
anwendungs@@
ape
arbeitslosigkeit
arc
argent@@
ariely
ario
artefakte
artic@@
ashes
assistenten
astronauten
ath
atlas
atmospheric
aufbau@@
aufzus@@
auslöser
ausseh@@
auswendig
auszubilden
autistic
auto-@@
automatic
autounfall
aviv
awar@@
balcon@@
ballons
banal
bananen
bandura
barbie
barrieren
basics
bath@@
bauchspeicheldrüsenkrebs
beachtung
beard
bedacht
begehren
begei@@
begeistern
beginn@@
begrenz@@
begrüßt
behandel@@
beherr@@
beiträgt
belan@@
belange
beliebtesten
benehmen
benign
ber-@@
bergs
berufen
berührte
beschweren
beschützt
beseitigt
besonderer
beth
betont
betreff@@
bewegenden
bewäl@@
bewässer@@
beängsti@@
bilbao
billion-@@
billion@@
biography
blaues
bloom
bo-@@
boarding
bobby
bohren
bohrt
bomben@@
bon
boyfriend
bras
brennt
brin
britannica
bruttoinlandsprodu@@
buckel@@
bulk
bush-@@
butt
buys
bän@@
cad
canal
cane
capacities
cardiovascular
carolyn
carson
celine
censor@@
cess@@
chie@@
chlor@@
chtig
chtige
cion
cists
class@@
cleaner
cles
combinations
complain
compose
concei@@
concent@@
conferences
conqu@@
contexts
continuum
coolen
correspon@@
crick@@
criticism
cubic
curtis
curved
custom
cynthia
d.c
darstellungen
darwins
datenbanken
ddled
deceased
decei@@
decentralized
dengue
depressing
deregu@@
deserts
designer@@
develops
dich@@
dictator@@
differ
dimin@@
dis
disku@@
dissemin@@
disziplin@@
dna-origami
dnis
dock
doll@@
donated
dood@@
doodlen
dorfes
doubling
dragged
drei-
drilling
dritter
druckt
drungen
dunes
dyson
dürfte
eco@@
ecolo@@
eeg
effektiv@@
ehemaligen
ehrfurcht
ehrgei@@
eich@@
eigener
ein-
einflöß@@
einschrän@@
einzustellen
eja@@
elektri@@
elektrischer
elung
enco@@
enlightened
eno
entdecker
entertaining
entfernte
enthüllen
entity
entscheiden@@
epit@@
eps
erfolgt
erhöhte
eries
erklärten
erkranken
erschaff@@
erseits
erstreckt
erwiesen
erwähne
erzeug@@
erzielt
esch@@
eson
etablieren
ethiop@@
excellence
excer@@
execu@@
execution
executive
existi@@
explicitly
explodieren
explodiert
extensive
extre@@
ez
facht
fahrung
fairy
fantas@@
fashi@@
fassung
fatty
fels@@
feminine
fernen
fertigkeit
fester
festgehalten
festlegen
ffel@@
fights
filme@@
filter@@
finanziell
flammen
flexibilität
fliegende
flood
flown
flucht@@
flüssig@@
fo
forscherin
fotografien
frak@@
franzosen
freigesetzt
freiwilli@@
fulfill
fuller
fungus
futter@@
futur@@
fäl@@
färben
förmigen
fünftel
gadgets
gange
gather@@
gebil@@
gebur@@
geckos
geehrt
gefe@@
geistig
gels
gemeinde@@
gemeinnütz@@
geographi@@
gereicht
gerichte
geriet
geräuschen
gesamtes
geschei@@
geschni@@
geschw@@
gesellschaftliche
gesteuerte
getrunken
gewichts@@
gewusst
gho@@
ghtful
gifts
gir@@
gitar@@
gleicher
glowing
gna@@
good-@@
graders
grin@@
grizz@@
grounded
großbritanniens
grössten
guided
gummi@@
gus@@
gutem
gängen
habitats
halls
hallucin@@
harb@@
haupt
haupts@@
hazard
heirat@@
heißer
heroin
hervorragende
herz-@@
hilflos
himalayas
himm@@
hinab
hna
hoden
hof@@
holly@@
holten
hosent@@
humor@@
hungersnot
hurts
hypothesen
hältst
häufigsten
hübsche
ide
identities
ih@@
ills
illustration
imposed
indiana
indirekt
indoors
inform@@
inject
insecure
instinctively
instincts
intangible
integrating
intentional
interference
intersection
inviting
iny
iran-@@
iraner
iranians
irgendwer
is-@@
isot@@
isra@@
itä@@
izing
jacob@@
jake
jaws
jean
jean-@@
jemandes
jewel@@
johns
judy
juri@@
jährlichen
k.
kamele
kampagnen
kath@@
kentucky
kenyan
kerle
killers
kindersitze
klienten
kling@@
klinisch
klü@@
klüger
knete
know-how
kofi
kometen
komit@@
kommuniziert
komplex@@
kontinuier@@
kontrast
konventionelle
kopf-zahl-@@
kose
kostengün@@
krebse
ktives
kunstwerke
kus
käufer
köni@@
künstlerischen
küssen
laparo@@
laying
lebensform
lec@@
legendary
lement
lerin
lerne
lev@@
lian
liby@@
lichtgeschwindigkeit
lier
liessen
lifelong
lila
lip@@
liz
lized
lkws
llig
loge
loh
loszuwerden
lucas
löchern
mack@@
mail-@@
makoko
maldives
malediven
mancher
mantis
manuscript
marvel
marx
mathematisch
mble
mcluhan
meantime
measurable
mediterranean
meeresschutz@@
megab@@
meilen@@
memo@@
menschenmenge
menting
michel
midnight
mierte
mierten
migrate
mikrofon
minto
mischt
mista@@
mites
mitfühlend
mittler@@
modernis@@
molekü@@
moms
montag
monu@@
mosque
moz@@
mutige
mutigen
mythologie
müsse
nab@@
nachdenke
nachmittags
nadel@@
nagel
najmuddin
nanometer
nasen@@
nashville
nathaniel
nchen
neanderthaler
negotiations
nests
neumann
neurological
nib@@
nicht-nullsummen-@@
nieren@@
nigerianischen
nk
noises
nomin@@
nord
nordkorea
northeast
noticing
numb
nützliche
oblivi@@
obst
obtained
officers
offizielle
offiziellen
oiled
olds
ologies
one-third
onies
oon
orbital
original@@
orni@@
oxi@@
packs
pakistani
papi@@
papua
pascal
pass@@
payment
pazifi@@
peln
per-@@
performer
performs
periodic
personnel
pervasive
pesticides
peter@@
pfl@@
phantom-arm
phas@@
phen
pins
placing
planten
platzt
plutonium
poland
poorly
presentations
prevents
primzahl
profi@@
profil@@
profiles
prognosti@@
programm@@
promotion
prostat@@
prostatakrebs
prou@@
prozentige
prozess@@
prozessoren
psychologe
puppet
quadratkilometer
qual@@
radiowellen
ranger
rationale
rationen
realistisch
realizes
rebel
recipes
refu@@
regionale
reichten
reise@@
rekord
relevance
remin@@
remix@@
remot@@
remotely
repu@@
reserven
resonance
resonanz
respectful
respektiert
responsive
rezeptor
richards
rigen
rip
rohr
rohre
ros
ros@@
rossy
ruhe@@
ruled
s-on
sag@@
sagmeister
sala
sanit@@
sanitary
saugen
scaled
schatten@@
schimpanse
schir@@
schlugen
schmecken
schmilzt
schnurrbart
schütten
sea@@
sechst@@
segen
sein@@
seits
selective
senen
sequenzieren
shadows
shah
shouting
sibirien
siblings
sic
simulated
simulationen
sinclair
sket@@
skop
skycar
slate
soeben
solar-@@
some@@
sopran@@
southwest
spann@@
spark
spaziergang
spouse
sprichwort
spulen
staggering
stap@@
starrt
starter
steer
stenz@@
stical
stiftungen
stirling
stly
stomatopo@@
strategische
strationen
street@@
stretched
strous
struggled
styles
städtische
stören
suggestions
suite
sulfide
summar@@
surge
surprises
suspicious
sweeping
sympathy
symphonie
synago@@
sync
synthesize
sän@@
säuren
t.@@
take-@@
tapped
technischer
telephones
terie@@
thirdly
throws
tian
titude
tled
tod@@
torna@@
tribun@@
trieben
trust@@
tso
tugend
turbin@@
turtles
twen@@
tyler
tzlich
u.s.-@@
uchen
ult
ums@@
umwand@@
unauf@@
unbekannt
undurch@@
ungeheure
ungsmittel
unterneh@@
unterschätzen
urbanen
urheber@@
uri@@
uruguay
ury
uv
uv-@@
v-day
vegetation
vens
verbesserte
verbraucher@@
verd@@
verdeutlichen
verfein@@
verfügbarkeit
verge
verkörper@@
verkündete
verlierer
vernichten
vernünftig
verrück@@
verschafft
verschreiben
versprochen
vertrieb
verwei@@
verzeihen
verzö@@
vet@@
veter@@
veteran
victor@@
vietnamese
viewers
vitam@@
vivian
vola@@
volk@@
vollzeit@@
volu@@
vorführung
vorherseh@@
vorschriften
vorsicht
vortra@@
vorüber@@
wages
wandering
warfare
weed
weekly
weggehen
werbes@@
werfe
wertet
west-@@
whip
whirlwind
whistling
willingness
willkürlich
wirtschaftskrise
wit@@
wohlhabenden
worldview
wundervolles
wähle
yahoo
yam@@
yel@@
yellow@@
yi
yoga
yp
zeig
zerbrechlich
zusammenbringt
zuverlässi@@
zwangs@@
zwecken
äus@@
äußern
ökologisch
ökosystemen
überlegte
überprüf@@
überträgt
-bewegung
.a.
10th
1940
1953
1990ern
2,500
2013
300.000
650
70.000
90@@
abgrund
abhalten
abstrakten
abwei@@
abzuhalten
acceptable
accidentally
achilles
acoustic
adams
admire
advantages
agent@@
aggressiv
akti@@
alisa
allan
alled
allererste
allerlei
amts@@
amy@@
analog@@
analytical
anfühlen
angelegt
anhalten@@
animated
anmerk@@
annan
anordnung
anschau@@
anthropologist
antun
any@@
anzukommen
anzusprechen
appealing
appearing
arch
architek@@
architekton@@
argu@@
argumentiert
as-@@
asiens
aspen
asper@@
atemberaubend
aufgeklär@@
aufnahm
aufsteigen
aunt
ausdenken
ausführung
aussahen
australi@@
auszuführen
authentisch
außerirdischen
avoi@@
babysi@@
balancing
barsten
basteln
beanspru@@
bedeutungen
behör@@
beleben
belts
bereichern
bereit@@
bereu@@
besagte
besessenheit
bestehende
besuchten
beträch@@
biert
bies
biolumineszenz
biotech
birgt
bited
blac@@
blair
blen
blessing
blocking
blutgefässe
boil
boyle
bracht
bread@@
breasts
brieren
brocken
brot@@
buckminster
buffalo
burma
burschen
bögen
capsule
captures
car-@@
carbonate
carrot
carved
castle
casual
cated
cav@@
centralized
centric
certainty
chair@@
chalk
chant
charging
chariot
chene
chol@@
chord
choreogra@@
christi@@
cils
civilian
claws
closure
collagen
colo@@
compen@@
competent
compos@@
computerprogramm
conceive
conceived
contacts
contracts
contribu@@
contributions
cooked
cpu
crank
crat
crater
croch@@
crocodile
crowded
ctivity
cue
currents
cyber
cyberkriminellen
daisy
dant
daphne
daw@@
ddler
decep@@
dekade
demnach
dener
derung
descartes
detectors
determin@@
determination
devastated
dia@@
diag@@
diagnostizieren
diagrams
diam@@
dictator
diener
digitally
dinnen
dious
disconnect
discre@@
dium
divers
dove
dreiecke
drought
drums
drüse
dude
dächern
dän@@
easter
educators
egos
eigentums@@
eignet
eingefangen
einher@@
einkaufszentrum
einschlagen
eintrag
einzelheiten
einzubeziehen
ekel
elfen@@
eloqu@@
emaker
embarras@@
empfand
empfän@@
enced
engagiert
engths
enha@@
enting
entwarfen
entz@@
erbaut
erfinder@@
erfindet
erfuhren
erfährt
ergreifen
erhältlich
erlaubten
erlich
ermäch@@
erschossen
erstaunlicherweise
erstellte
ertrinken
eur@@
eval
exceptional
excuses
exhausted
exhi@@
existential
experimenting
explodierte
explosions
exter@@
extrahieren
faint
falt@@
fana@@
fass
fast-forward
faszinierender
feasi@@
fenster@@
fertigen
fertigten
fesselt
fettleibig
filmmakers
fisher
flach@@
flag@@
flap
floss
fluctuations
fluktuationen
flücht@@
flüchtling@@
flüchtlinge
flügeln
food-@@
fordere
forderte
formte
forscht
freiheits@@
freundlicher
fulfilled
funk
funktionierenden
fuse
fällig
führungspersön@@
gand@@
gateway
gaze
gebau@@
gefangene
gefängnisse
gefär@@
gefühls@@
gemeinnützigen
gemeinschafts@@
gemäl@@
genomik
gerechnet
gescheitert
gesessen
gesichts
gesichtsausdrücke
gespendet
gestoppt
gestürzt
gestützt
gesundheitswesens
getrei@@
gewa@@
gewartet
gewähren
gezählt
gezü@@
ggles
ghost
glaubens
google-@@
gottes@@
grandmothers
gratu@@
grossartig
großzügigkeit
grös@@
gurte
gurus
haas
hackt
haul
headset
hears
hebe
heiz@@
herange@@
herauskam
herausra@@
herrschte
hindu@@
hinschauen
hinterließ
hnen@@
hochgeladen
hoe
hoffte
hubble
hydropho@@
hyperbolic
hänge
häuser@@
hühner@@
identitäten
idol
ignorant
iker
ile
illen
illustrates
ily
impac@@
implants
implemen@@
improvisieren
inadequate
inclusive
incomes
incremental
indianer
indul@@
indus-schrift
inefficient
inexpensive
infrarot@@
ingenieurs@@
innovations@@
insky
inso@@
instinkt
intelligent@@
interagiert
interaktiven
interessen@@
interessierten
internationaler
interpretiert
interro@@
interval
invaded
ironic
isen
issued
ister
iv
jab@@
jacke
jahrzehnts
japaner
jeglicher
jordans
josh
juli@@
jurassic
jü@@
kans
kapsel
katoren
keen
kiki
kiva
kleidungs@@
kler
klimakrise
kling
klon@@
knochenmark
koma
komischen
kommerziellen
komplettes
komponisten
konfron@@
konsument
korreli@@
korrid@@
kosmologie
kranke
krankungen
kredite
kreislauf@@
krö@@
ktiert
ktierte
ktiver
kulissen
kuns@@
kuwait
kälte
köder
künst@@
kürze
kürzen
landwir@@
langfristigen
laufende
lauschen
laute
lava
leak
lebensformen
lebensspanne
lebensstandard
legis@@
lehnte
leich@@
liberation
licheren
lichten
limestone
lindbergh
lit@@
literary
lotterie
lure
lustigen
lymph@@
lyn
lüge
madness
malaysia
mammogram
mandel@@
manipulated
mannschaft
manufacturer
margin
masken
mass-@@
massively
matics
maßnahme
meaningless
mechanisch
medieval
mehrmals
meldungen
menop@@
mermaid
miete
miner@@
ming@@
missbraucht
mittel-welt
mittelklasse
ml
mmm
modells
monolo@@
montage
month-@@
morgan
mosa@@
moti@@
moun@@
mten
mund@@
muschel
mächte
mächtiges
möbeln
nachdachte
nackt
nanotechnologie
naturschutz
ndes
near-@@
needing
neigt
nerds
nest@@
newly
nih
nitri@@
nixon
notebook
novels
nullen
nutzlos
nyu
näh@@
objekts
obsessi@@
offenes
offensive
officially
ogramm
old-@@
onik
opho@@
ores@@
organisch
orien
osi@@
oting
outsi@@
oz
palace
passionately
paulo
pe-@@
pein@@
peripe@@
pers@@
personen@@
persons
pharmazeu@@
philanthrop@@
photographing
phthalates
pies
pillars
pinker
plaque
plying
pollen@@
pont
popped
portu@@
position@@
posture
potentielle
presse@@
presumably
primär@@
prinz
priva@@
processors
produzierte
programmierung
prone
prostitu@@
protag@@
protocells
protocol
proton
prototyp@@
prozac
prozenti@@
prüft
pseu@@
psychiat@@
puberty
publisher
punk
puppe
quadrate
quadri@@
quali@@
quotes
races
railroad
rais@@
randi
ratings
recei@@
reco@@
recor@@
ree
referenz@@
refers
refin@@
regisseur
registriert
reib@@
reis@@
rekonstruieren
releasing
replic@@
replied
reproduzieren
republi@@
respects
restra@@
restricted
resurrec@@
retire
rettungs@@
returning
rezepte
rhetor@@
rhythms
rian
ribb@@
rightly
robinson
rouge
row@@
rut
sack@@
saf@@
sail@@
sali@@
salmon
sanc@@
sangen
sarajevo
sations@@
savanne
saves
schaff@@
schedule
schem
scherz
schilder
schlachtfeld
schläger
schmug@@
schnü@@
scholar
schrän@@
schwierigkeit
schwärmen
schüttet
schütz@@
scottish
seafood
sealed
seam@@
seat@@
sect
see-@@
sehkraft
seifen@@
seitigen
sektoren
selbstmordattent@@
sell@@
senegal
senioren
senkre@@
sens
sequel
seren@@
serendi@@
servi@@
settings
seu@@
short-term
shri@@
sichtlich
sige
signifi@@
skelettmuskeln
skr@@
smiles
smiley
sne@@
soft@@
soll@@
solves
som
soundtrack
sousa
spektakulär
spins
spirituelle
spit@@
sser
standardis@@
startling
statisch
stattung
stechn@@
stechnologie
stecke
steering
sterberate
stereotyp@@
stiker
strains
strassen@@
streich@@
strokes
stumbled
stunden@@
stärk@@
subscri@@
subventionen
succ@@
sugger@@
sump@@
superior
supraleiter
sushi
swap
sweat@@
swerte
synapsen
system@@
südasien
t.b.
taboo
tafeln
tagsüber
taller
teddy
teheran
teilchenphysik
teleskop@@
temptation
teppi@@
termin
testimony
thirds
thou@@
threaten
thrive
thrust
thur@@
ti-@@
ticism
tiefgrün@@
tigers
tilien
timber
tiniest
tipping
titled
tol@@
tooth@@
transducer
transferred
translates
tribute
triple
tritt@@
trocknet
trommel
tseite
tually
tunas
turkish
turtle
tutor
tw@@
twin@@
twitter-@@
typisches
u-bahn@@
ually
umkehren
umwandlung
umweltschutz
unaids
underestimate
underway
ungemein
ungslos
unheim@@
unmittelbare
unterdrückung
unterhaltungen
unterkunft
unterrichts@@
unvei@@
unvermeidbar
ura
uralten
urgent
urteilen
vagina-@@
vague
vam@@
varied
vention@@
verbot
verbrecher
verdamm@@
verdrahtet
verdäch@@
verga@@
verhand@@
verkür@@
verschicken
verwandlung
verwirrend
vet
vibration
vic
virul@@
visionary
vollständigen
vollziehen
vorlesung
vors
vorschein
vorsitz@@
vorzüge
waking
waldes
wart
webcam
weekends
wehr@@
weihnachtsmann
weir@@
weizen@@
wellenlänge
weltwirtschaft
wertvollen
wey
whiskey
wich
wiederherstellung
wiederver@@
wikileaks
wilderness
wipe
wisconsin
witn@@
wning
workshop
wärme@@
würdet
x-rays
xt
yal
zahn
zauberer
zeitgenössische
zetas
ziege
zielte
ziffern
zig@@
zorn
zugehöri@@
zugreifen
zusammenfassung
zuspielen
zuständen
zutrifft
zwei-
zweige
zweitgrößte
zwi@@
zähler
änder@@
äquator
äquivalent
ärz@@
öhnen
östlichen
östro@@
überstehen
1,100
13-@@
1971
20ern
45-@@
70,000
747
99.@@
abgebildet
abholzung
abschnitte
absorbiert
abweichungen
acceleration
accent
adolescent
adolescents
agnor@@
ahmed
airlines
airports
airstream
akademie
akes
alabama
alan@@
alistische
alizes
alko@@
allerersten
allge@@
allison
altet
aminosäuren
anecdot@@
aneinander
anfassen
anforderungen
ange
angebor@@
angeordnet
angerei@@
angetan
anhäu@@
ania
animations
anlass
anor@@
anter
anthropologists
antiqu@@
antor
anweisung
anzugreifen
anästhesie
apfel@@
apocalyp@@
arbitrary
argentinien
arteries
articulate
artifi@@
aspekten
aspiration
assigned
astronauts
atemberaubende
atrice
aufeinander@@
aufführung
aufgefordert
aufweist
augenlicht
ausbeu@@
auschwitz
ausdrücke
ausführ@@
ausländische
ausrichtung
australopithe@@
auswirken
automated
automotive
außer@@
availability
backward
baker
barcode
bases
basin
baugh
baumwoll@@
baxter
beck@@
bedingte
beeinträchtigt
befriedi@@
befürchten
begegnete
begrenzen
beh@@
beleuchten
bemerkung
benachteili@@
beobacht@@
bereitstellen
berries
beschwerden
beschäftige
besei@@
bess@@
bestehenden
bester
bestraft
beunruhigend
bewegliche
bewusst@@
bewussten
bewusstseins@@
bibliothe@@
bill@@
bingo
biographi@@
bioluminescent
birth@@
bites
bitter@@
bizar@@
bla
blob
bloß@@
bohrer
boli@@
boltzmann
booms
bote
botschafter
bottom@@
brakes
brannte
brit@@
bräu@@
buddh@@
budrus
bundesstaaten
burial
busines@@
busse
buster
böden
börsen@@
caf@@
cafeteria
cargill
carl@@
carmen
caroline
categ@@
cel
cers
cet
chan
chap@@
characteri@@
charta
chaz
cheln
chendes
chill
cholester@@
chy@@
cigarettes
circul@@
cist
citizenship
ckchen
clare
clarke
clash
clinically
cock@@
cognitively
coinci@@
collabor@@
collins
comet
commentary
communist
compressed
computerspiele
concus@@
conduc@@
confusing
connectedness
containing
corresponding
corti@@
cosm@@
cosmology
costly
couples
crafts@@
cran@@
creatively
crystals
cultiv@@
cumulative
cun@@
customization
cutting-edge
da-@@
dable
dangers
dasein
databases
db
deadline
debat@@
declar@@
declined
delfin
deliberately
delph@@
delphine
delu@@
denburg
deni@@
denomin@@
dens@@
dental
dentist
des-@@
desc@@
descriptions
detailliert
dezi@@
diale@@
diamanten
diane
die-@@
diente
dierten
differential
diffusion
dilemmas
dimensionale
dining
disgu@@
dispar@@
dispen@@
disper@@
distinctive
dl
dnis@@
dominierende
douglas
down-@@
drank
dravi@@
dread@@
dreidimension@@
druckerpresse
dry@@
dson
dul
dump@@
durchbrechen
durchqu@@
dvds
dänemark
e.u.
eager
echn@@
editing
eigen
eingeben
eingebunden
einigermaßen
einsetzt
einsteigen
einzelteile
elektronen@@
elevated
eliminated
eliminieren
embraced
emitted
empfehl@@
emphasis
emu@@
energy-@@
ensemble
entschlüsseln
entwirft
enzen
enzymes
epiphy@@
erase
ergab
ergänzen
erholung
erkundet
ermunter@@
erness
erobern
erobert
erreichbar
erschein@@
erschöpft
erwischen
ese@@
essentiell
etabliert
ethan
euros
evapor@@
exhilar@@
expands
expressing
expressive
extern@@
fa
fabel@@
fade
fahrenheit
faszinier@@
faszinierendes
fehlenden
feldes
fert
fif@@
filming
fitted
flakes
fleder@@
flipping
flooding
flourishing
flugbahn
folge@@
footprints
forbes
ford-@@
foreground
forsche
forschungsarbeit
founders
fractal
fragmented
franch@@
frischen
frost
fröhlich
fty
fur
fäkalien
gal
gastgeber
geantwortet
gebern
gebot
gebrochenen
gebühr
geeig@@
gefil@@
gefroren
gegebenheiten
gegenwärtig
gekennzeichnet
gelehrten
gelächter
gemischt
gency
genesis
genies
geoffrey
geringere
gerlich
germ
gerungen
gerweise
geschenke
geschlossen@@
geschäftsmodelle
gesehen@@
gesiedelt
gesprochene
gespürt
gess@@
gewisses
gewähr@@
ghe@@
gifted
gigantische
giraffe
gleiten
gliedmaßen
gläser
glückske@@
gorillas
gott@@
groundbreaking
grounds
großzügig
grundidee
größerer
guaranteed
gummi
haltungs@@
handi@@
hart@@
headaches
heel
herzerkrankungen
hid
hierzu
himi
hintergrund@@
hinterlässt
hinweg@@
hippocampus
hler
hlten
hness
hnung
hochauf@@
hol
horr@@
hospi@@
houston
htt@@
hub
hunter-@@
hygiene
hypertext
hypothetical
häufigkeit
idy@@
igbo
illusion@@
imaginary
imaginative
imbalance
import
impres@@
inc@@
inda
inde@@
indication
infect
infizierten
influen@@
informationstechnologie
informierte
inhabited
inhalten
insassen
insisted
institu@@
institutionelle
insulinresistenz
intelle@@
intensiver
intensivstation
interviewen
interviewt
iranischen
ischste
itäre
jai@@
jared
jas@@
jekt
jenny
jim@@
joey
jpl
jr
julius
junction
kac@@
kapitän
karibik
kasse@@
keit@@
kelley
ken-@@
kerala
kew
kilograms
kindle
kleiber
klemp@@
klimaanlage
kodieren
kollektives
kombinationen
komplexere
kondi@@
kondom
konfiguration
konsumiert
kontakte
kontrollen
konventionellen
koordination
korrespon@@
kosmische
kot@@
krankheitserre@@
kratische
krawat@@
kreide
kritz@@
kumpel
kumu@@
kästchen
könn@@
körpergröße
künf@@
lai@@
landeten
laramie
lasted
lative
lauren
lebender
lebzeiten
lemon
lessig
letzen
levine
li
liberalen
licen@@
lichtjahre
liebhaber
liebling
lieferanten
linearen
linksh@@
linus
listet
lling
locom@@
lohn@@
loops
lump
lungs@@
lymp@@
lyndon
länder@@
längste
läss@@
lös@@
macar@@
maeda
mafia
mahab@@
maine
mandarin
manifesti@@
marduk
margins
marie
maryland
mathematically
mathematisches
matthieu
maui
max@@
measurement
med@@
meda@@
medienunternehmen
mehl
meiß@@
mentors
messing
mics
mighty
migra@@
militärischen
millionen-@@
mimics
miniatur@@
ministerin
miracul@@
misshand@@
missile
mittelschicht
mittelt
mitzuteilen
mobilisieren
mock@@
modellieren
moderator
moderni@@
moglobin
mohammed
mont@@
moschee
motions
motorcycle
motorrad
mounted
mp3
muffin
mulla@@
mundane
murdered
mutant
mutually
mächti@@
mächtigste
mücke
müh@@
mütter@@
n.
nachforschungen
nachthimmel
nahrungsmittel@@
naht@@
naiv
nationaler
neandertaler
nerv@@
nettes
neuro-@@
neurotransmitter
neusten
newcastle
nian
nicht-nullsummen@@
niger
nirgends
nischer
non-profit
norwe@@
not-@@
nour@@
nove@@
nter
nursing
nutzer@@
nützen
objektive
obligation
odys@@
ologischer
ones@@
opern@@
opped
optimale
orbiting
orientierte
ortes
osc@@
otto
outrageous
owns
ozone
palä@@
pani@@
participant
paula
payments
peace@@
peel
percei@@
perfektes
performances
permanently
persön@@
pete
pfeile
phänomens
pierre
plakat@@
plötz@@
pneumonia
polite
pollu@@
port-au-prince
pper@@
pple
practiced
predicts
preferences
prefrontal
prego
premi@@
premiere
preserving
prevalent
primal
primä@@
probi@@
produktion@@
professions
prophet
propor@@
protective
protects
proteomics
proving
präsidentschafts@@
prüf@@
psychisch
pte
pulses
pyg@@
qi
quantity
quit@@
quor@@
rabbis
radioactive
raleigh
raumfahrt
realisierte
rebellion
rechenmaschine
recherch@@
reconstruct
rectangle
refrigerator
regain
regenwasser
reiches
reinig@@
reißt
rekor@@
reminder
rennt
requests
requirements
ressourcen@@
richte
richteten
richtiges
rider
riv@@
robbins
rober@@
roboter-@@
rockwell
romane
romegal@@
ruption
russ@@
röntgen-@@
sacks
sacrifi@@
sagen@@
sais@@
sandel
scham@@
schande
schildkröte
schildkröten
schizop@@
schlaue
schlech@@
schluss@@
schockierend
schulsystem
schulter@@
schwanger@@
schwarz-@@
schwefelwasserstoff
schweres
schwingungen
schüssel
secretly
seel@@
seeleop@@
seiten@@
selam
selbstwertgefühl
senkt
sessions
severely
shmi
shout
show@@
similarities
simplistic
sir@@
sischer
siven
sives
six-year-old
skarte
skyscra@@
slager
slam@@
slaves
slices
sonstwo
sounded
southeast
spaghetti-@@
spalten
spannen
spazier@@
speichert
spektr@@
spezielles
sphase
spiderman
spielplatz
stacks
standard-@@
station@@
statistic
steil
stereotypes
stetho@@
stick@@
stießen
stolper@@
story@@
strated
streu@@
strich@@
strict
stries
stron@@
structured
studenten@@
studiere
stünde
subsidies
succe@@
sug@@
summen
superhero
sweet@@
switches
switching
sämtliche
südo@@
süßigkeiten
tablet
taube
taxon@@
tched
technician
technicians
technisches
teilneh@@
terry
tetr@@
thankfully
theke
theo@@
therapist
thermodynam@@
third-@@
three-year-old
thun@@
thy@@
tiefgreifende
tierrei@@
tili@@
timeline
tis@@
tiveness
tivsten
tize
tle
tles
todd
todesstrafe
tomaten@@
tonne
top-down
topf
total@@
tou@@
tragische
trand
transcen@@
transcendence
traumati@@
treadmill
treibhausgas@@
treibstoff@@
trete
trickster
trie
triggers
tro
tropen
träumt
tröpf@@
tuberculosis
tunisia
turbine
turk
tus@@
tyranno@@
tze@@
täter
täusch@@
ue@@
uh-@@
umin@@
umweltverschmutzung
unacceptable
undercover
unemployed
ungläu@@
unglücklichen
ungsproble@@
universi@@
unmengen
unsustainable
unvorstell@@
unvorstellbar
unwahrschein@@
unwohl
upp@@
usd
ventilation
veraltet
veranschaulichen
verbs
verbundene
verdau@@
verdrängen
verfahr@@
verflo@@
vergangen
verhinder@@
verkündet
verlangte
vermin@@
verschiedensten
verschmu@@
verschul@@
verwaltungs@@
vibrant
vibrio
vide@@
viktori@@
visualizing
vize@@
volumes
vorfall
vorhandenen
vorurteile
vos
wade
wahrlich
wahrnehmungen
walkable
weblogs
weihnacht@@
weltmeister@@
weltrekord
werker
westens
whitney
wide-@@
willens
willie
winkeln
wohltätigkeits@@
wolkenkrat@@
world-class
wächter
wägen
wärmen
wüsten
yste@@
ywood
za-@@
zable
zau@@
zerfallen
zesses
zielten
ziere
zuhalten
zurückgeht
zurückgelassen
zurückzukommen
zusammenfas@@
zuwachs
zuzugeben
zweifeln
äußert
és
öffneten
öko-@@
öl-@@
übel@@
übereinstimmung
übergeben
übernahm
überraschen@@
überraschenderweise
überraschte
übertrieben
überwach@@
überwacht
überwiegend
‒
(
-a-@@
-free
1,200
100@@
12th
15th
23@@
25-@@
4.
404
50.
50th
9.@@
aaron
abbauen
abbildung
abbrechen
aben
abgelegenen
abgeordnete
abgespielt
abläufe
abused
abzuschließen
accused
achievements
adiposit@@
adjacent
adres@@
adverti@@
advertise@@
agentur
ager
agra@@
air-@@
aires
alian
alles@@
altruism
aluminium@@
aly
aly@@
ambulan@@
amis
ance@@
ancestry
andauern@@
anfertigen
anfänge
anfängen
angemessene
angene@@
angestellt
angreift
angucken
anhört
anno@@
announcement
ant-@@
antennen
anwender
anzuhalten
archives
ardu@@
arguably
argumentation
aris
arized
arot
arou@@
arranged
arthritis
arzneimittel@@
assau@@
assembling
asser@@
atemberau@@
atheism
athleten
attendance
auffä@@
aufgelöst
aufleuchten
aufrechterhalten
aufstre@@
aufträge
augenblicklich
auseinandersetzen
ausgegangen
ausgesehen
ausschlag@@
ausster@@
ausstoß
austri@@
auszurotten
auszutauschen
autonome
autorin
außergewöhnlicher
avi@@
aviation
ba-@@
bachel@@
backgrounds
banana
barungen
bearing
bedauern@@
befragen
begri@@
begrün@@
begün@@
behaup@@
bekämen
bekämpft
belege
belonging
bemü@@
bene@@
beno@@
berges
berk@@
berühmtes
besprochen
best-@@
bestrafen
bestre@@
betrieb@@
betty
beutel
bewegende
bid
bier@@
bildungen
biolog@@
biologisches
biome@@
bisch
bisher@@
bladder
blat@@
blauer
bleeding
blüten@@
bomb@@
bonnet
borne
brah@@
brannt
braunen
brett@@
brie@@
brin@@
broadly
brook
brun@@
brunel
buffet
business-@@
business@@
buzz
calculators
campaigning
cardo
catherine
cators
caution
centimeters
cereal
certificate
cesar
chaotisch
characterized
cheated
chewing
chlorop@@
chr.
chry@@
chtigkeit
cinema
cleaned
clicks
commands
compass
conceptions
congratu@@
conspiracy
containers
contaminated
convergence
cookies
coordin@@
copy@@
corps
coup
cox
crabs
crashed
crises
cyber-@@
cycli@@
daheim
dances
danish
darbie@@
dazz@@
death@@
decisi@@
defending
defle@@
degrade
delete
denes
denied
dentum
depres@@
deprivation
derartu
devi@@
dice
dienstleistung
digital@@
digitize
dings
dip
dirigent
distracted
disturbed
diversi@@
divor@@
dizzy
downs
dred
dreißig
drip
drum@@
drüsen
dum
dung@@
durchführte
durchgemacht
dynamically
düne
dünen
ebola
ecologist
edel@@
edible
effectiveness
effizient@@
effizienten
ehefrau
eiern
eindrücke
eintauchen
eisbären
elementar@@
ellinie
embry@@
emer@@
emergent
encoder
encounters
encryp@@
ender@@
enduring
enjoyable
enri@@
enthusiastic
entitled
entscheidungsträger
envision
epic
erfin@@
erfordern
ergän@@
erhöhung
erkäl@@
erlangt
erläutern
ernsten
erschließen
erschü@@
erstaunlichsten
erwer@@
erworben
erwähnten
erzeugung
eröffnung
essens
establi@@
etabli@@
etz
europeans
evaluation
event@@
eviden@@
ewige
examined
exclusive
executed
exempl@@
exemplar
existierende
expeditions
experimentation
experimenter
exposing
extremism
extremismus
exzell@@
fahrer@@
falsches
favoriten
federn
fees
ferien
fic
fifteen
fill@@
fing@@
finland
fishes
flache
flames
fledermaus
fliehen
flipped
flop
flüssiges
forehead
foreig@@
foremost
forgiveness
[...]
